#include "magic_wand_model_data.h"

// We need to keep the data array aligned on some architectures.
#ifdef __has_attribute
#define HAVE_ATTRIBUTE(x) __has_attribute(x)
#else
#define HAVE_ATTRIBUTE(x) 0
#endif
#if HAVE_ATTRIBUTE(aligned) || (defined(__GNUC__) && !defined(__clang__))
#define DATA_ALIGN_ATTRIBUTE __attribute__((aligned(4)))
#else
#define DATA_ALIGN_ATTRIBUTE
#endif

const unsigned char g_magic_wand_model_data[] DATA_ALIGN_ATTRIBUTE = {
  // Paste the data of the char array in `src/model.cc` here
    0x1c, 0x00, 0x00, 0x00, 0x54, 0x46, 0x4c, 0x33, 0x14, 0x00, 0x20, 0x00,
  0x04, 0x00, 0x08, 0x00, 0x0c, 0x00, 0x10, 0x00, 0x14, 0x00, 0x00, 0x00,
  0x18, 0x00, 0x1c, 0x00, 0x14, 0x00, 0x00, 0x00, 0x03, 0x00, 0x00, 0x00,
  0x18, 0x00, 0x00, 0x00, 0x2c, 0x00, 0x00, 0x00, 0xd8, 0x00, 0x00, 0x00,
  0x2c, 0x00, 0x00, 0x00, 0x80, 0x00, 0x00, 0x00, 0x78, 0x00, 0x00, 0x00,
  0x05, 0x00, 0x00, 0x00, 0x28, 0x07, 0x00, 0x00, 0x44, 0x06, 0x00, 0x00,
  0xbc, 0x03, 0x00, 0x00, 0xf8, 0x02, 0x00, 0x00, 0xac, 0x01, 0x00, 0x00,
  0x01, 0x00, 0x00, 0x00, 0xd0, 0x00, 0x00, 0x00, 0x14, 0x00, 0x00, 0x00,
  0xdc, 0x32, 0x00, 0x00, 0xd8, 0x32, 0x00, 0x00, 0xd0, 0x31, 0x00, 0x00,
  0x1c, 0x31, 0x00, 0x00, 0x74, 0x30, 0x00, 0x00, 0xfc, 0x2f, 0x00, 0x00,
  0x90, 0x2f, 0x00, 0x00, 0x40, 0x13, 0x00, 0x00, 0xec, 0x11, 0x00, 0x00,
  0x10, 0x10, 0x00, 0x00, 0xb4, 0x07, 0x00, 0x00, 0xb0, 0x32, 0x00, 0x00,
  0xac, 0x32, 0x00, 0x00, 0xa8, 0x32, 0x00, 0x00, 0xa4, 0x32, 0x00, 0x00,
  0xa0, 0x32, 0x00, 0x00, 0x9c, 0x32, 0x00, 0x00, 0x98, 0x32, 0x00, 0x00,
  0x94, 0x32, 0x00, 0x00, 0x3c, 0x00, 0x00, 0x00, 0x00, 0x00, 0x00, 0x00,
  0x01, 0x00, 0x00, 0x00, 0x0c, 0x00, 0x00, 0x00, 0x08, 0x00, 0x0c, 0x00,
  0x04, 0x00, 0x08, 0x00, 0x08, 0x00, 0x00, 0x00, 0x08, 0x00, 0x00, 0x00,
  0x13, 0x00, 0x00, 0x00, 0x13, 0x00, 0x00, 0x00, 0x6d, 0x69, 0x6e, 0x5f,
  0x72, 0x75, 0x6e, 0x74, 0x69, 0x6d, 0x65, 0x5f, 0x76, 0x65, 0x72, 0x73,
  0x69, 0x6f, 0x6e, 0x00, 0xb6, 0xce, 0xff, 0xff, 0x04, 0x00, 0x00, 0x00,
  0x10, 0x00, 0x00, 0x00, 0x31, 0x2e, 0x35, 0x2e, 0x30, 0x00, 0x00, 0x00,
  0x00, 0x00, 0x00, 0x00, 0x00, 0x00, 0x00, 0x00, 0x0f, 0x00, 0x00, 0x00,
  0x4d, 0x4c, 0x49, 0x52, 0x20, 0x43, 0x6f, 0x6e, 0x76, 0x65, 0x72, 0x74,
  0x65, 0x64, 0x2e, 0x00, 0x00, 0x00, 0x0e, 0x00, 0x18, 0x00, 0x04, 0x00,
  0x08, 0x00, 0x0c, 0x00, 0x10, 0x00, 0x14, 0x00, 0x0e, 0x00, 0x00, 0x00,
  0x14, 0x00, 0x00, 0x00, 0x5c, 0x00, 0x00, 0x00, 0x60, 0x00, 0x00, 0x00,
  0x64, 0x00, 0x00, 0x00, 0x84, 0x00, 0x00, 0x00, 0x12, 0x00, 0x00, 0x00,
  0x9c, 0x31, 0x00, 0x00, 0x2c, 0x31, 0x00, 0x00, 0x88, 0x30, 0x00, 0x00,
  0xe0, 0x2f, 0x00, 0x00, 0x38, 0x2f, 0x00, 0x00, 0xd4, 0x2e, 0x00, 0x00,
  0x6c, 0x2e, 0x00, 0x00, 0x18, 0x12, 0x00, 0x00, 0xbc, 0x10, 0x00, 0x00,
  0xe0, 0x0e, 0x00, 0x00, 0x0c, 0x06, 0x00, 0x00, 0x28, 0x05, 0x00, 0x00,
  0xe8, 0x03, 0x00, 0x00, 0x3c, 0x03, 0x00, 0x00, 0x98, 0x02, 0x00, 0x00,
  0xd4, 0x01, 0x00, 0x00, 0x10, 0x01, 0x00, 0x00, 0x84, 0x00, 0x00, 0x00,
  0x01, 0x00, 0x00, 0x00, 0x00, 0x00, 0x00, 0x00, 0x01, 0x00, 0x00, 0x00,
  0x11, 0x00, 0x00, 0x00, 0x08, 0x00, 0x00, 0x00, 0x74, 0x05, 0x00, 0x00,
  0x94, 0x04, 0x00, 0x00, 0x78, 0x03, 0x00, 0x00, 0xbc, 0x02, 0x00, 0x00,
  0x30, 0x02, 0x00, 0x00, 0x50, 0x01, 0x00, 0x00, 0xa8, 0x00, 0x00, 0x00,
  0x10, 0x00, 0x00, 0x00, 0x04, 0x00, 0x00, 0x00, 0x6d, 0x61, 0x69, 0x6e,
  0x00, 0x00, 0x00, 0x00, 0x7a, 0xff, 0xff, 0xff, 0x00, 0x00, 0x00, 0x09,
  0x04, 0x00, 0x00, 0x00, 0x1c, 0x00, 0x00, 0x00, 0x10, 0x00, 0x00, 0x00,
  0x04, 0x00, 0x00, 0x00, 0xb2, 0xcf, 0xff, 0xff, 0x00, 0x00, 0x80, 0x3f,
  0x01, 0x00, 0x00, 0x00, 0x11, 0x00, 0x00, 0x00, 0x01, 0x00, 0x00, 0x00,
  0x10, 0x00, 0x00, 0x00, 0xa0, 0xfa, 0xff, 0xff, 0x19, 0x00, 0x00, 0x00,
  0x00, 0x00, 0x00, 0x19, 0x01, 0x00, 0x00, 0x00, 0x40, 0xcf, 0xff, 0xff,
  0x14, 0x00, 0x00, 0x00, 0x12, 0x00, 0x00, 0x00, 0x18, 0x00, 0x00, 0x00,
  0x30, 0x00, 0x00, 0x00, 0x20, 0x00, 0x00, 0x00, 0x02, 0x00, 0x00, 0x00,
  0x01, 0x00, 0x00, 0x00, 0x04, 0x00, 0x00, 0x00, 0x08, 0x00, 0x00, 0x00,
  0x49, 0x64, 0x65, 0x6e, 0x74, 0x69, 0x74, 0x79, 0x00, 0x00, 0x00, 0x00,
  0x02, 0x00, 0x00, 0x00, 0xff, 0xff, 0xff, 0xff, 0x04, 0x00, 0x00, 0x00,
  0x24, 0xd0, 0xff, 0xff, 0x00, 0x00, 0x0e, 0x00, 0x18, 0x00, 0x08, 0x00,
  0x0c, 0x00, 0x10, 0x00, 0x07, 0x00, 0x14, 0x00, 0x0e, 0x00, 0x00, 0x00,
  0x00, 0x00, 0x00, 0x08, 0x03, 0x00, 0x00, 0x00, 0x18, 0x00, 0x00, 0x00,
  0x0c, 0x00, 0x00, 0x00, 0x04, 0x00, 0x00, 0x00, 0x40, 0xcf, 0xff, 0xff,
  0x01, 0x00, 0x00, 0x00, 0x10, 0x00, 0x00, 0x00, 0x03, 0x00, 0x00, 0x00,
  0x0f, 0x00, 0x00, 0x00, 0x07, 0x00, 0x00, 0x00, 0x04, 0x00, 0x00, 0x00,
  0xc8, 0xcf, 0xff, 0xff, 0x14, 0x00, 0x00, 0x00, 0x11, 0x00, 0x00, 0x00,
  0x18, 0x00, 0x00, 0x00, 0x5c, 0x00, 0x00, 0x00, 0x4c, 0x00, 0x00, 0x00,
  0x02, 0x00, 0x00, 0x00, 0x01, 0x00, 0x00, 0x00, 0x04, 0x00, 0x00, 0x00,
  0x34, 0x00, 0x00, 0x00, 0x73, 0x65, 0x71, 0x75, 0x65, 0x6e, 0x74, 0x69,
  0x61, 0x6c, 0x2f, 0x64, 0x65, 0x6e, 0x73, 0x65, 0x5f, 0x31, 0x2f, 0x4d,
  0x61, 0x74, 0x4d, 0x75, 0x6c, 0x3b, 0x73, 0x65, 0x71, 0x75, 0x65, 0x6e,
  0x74, 0x69, 0x61, 0x6c, 0x2f, 0x64, 0x65, 0x6e, 0x73, 0x65, 0x5f, 0x31,
  0x2f, 0x42, 0x69, 0x61, 0x73, 0x41, 0x64, 0x64, 0x00, 0x00, 0x00, 0x00,
  0x02, 0x00, 0x00, 0x00, 0xff, 0xff, 0xff, 0xff, 0x04, 0x00, 0x00, 0x00,
  0xc8, 0xcf, 0xff, 0xff, 0xda, 0xfc, 0xff, 0xff, 0x00, 0x00, 0x00, 0x08,
  0x03, 0x00, 0x00, 0x00, 0x24, 0x00, 0x00, 0x00, 0x18, 0x00, 0x00, 0x00,
  0x0c, 0x00, 0x00, 0x00, 0x00, 0x00, 0x06, 0x00, 0x08, 0x00, 0x07, 0x00,
  0x06, 0x00, 0x00, 0x00, 0x00, 0x00, 0x00, 0x01, 0x01, 0x00, 0x00, 0x00,
  0x0f, 0x00, 0x00, 0x00, 0x03, 0x00, 0x00, 0x00, 0x0e, 0x00, 0x00, 0x00,
  0x06, 0x00, 0x00, 0x00, 0x03, 0x00, 0x00, 0x00, 0xe8, 0xfb, 0xff, 0xff,
  0x09, 0x00, 0x00, 0x00, 0x00, 0x00, 0x00, 0x09, 0x01, 0x00, 0x00, 0x00,
  0x88, 0xd0, 0xff, 0xff, 0x14, 0x00, 0x00, 0x00, 0x10, 0x00, 0x00, 0x00,
  0x18, 0x00, 0x00, 0x00, 0x6c, 0x00, 0x00, 0x00, 0x5c, 0x00, 0x00, 0x00,
  0x02, 0x00, 0x00, 0x00, 0x01, 0x00, 0x00, 0x00, 0x10, 0x00, 0x00, 0x00,
  0x46, 0x00, 0x00, 0x00, 0x73, 0x65, 0x71, 0x75, 0x65, 0x6e, 0x74, 0x69,
  0x61, 0x6c, 0x2f, 0x64, 0x65, 0x6e, 0x73, 0x65, 0x2f, 0x4d, 0x61, 0x74,
  0x4d, 0x75, 0x6c, 0x3b, 0x73, 0x65, 0x71, 0x75, 0x65, 0x6e, 0x74, 0x69,
  0x61, 0x6c, 0x2f, 0x64, 0x65, 0x6e, 0x73, 0x65, 0x2f, 0x52, 0x65, 0x6c,
  0x75, 0x3b, 0x73, 0x65, 0x71, 0x75, 0x65, 0x6e, 0x74, 0x69, 0x61, 0x6c,
  0x2f, 0x64, 0x65, 0x6e, 0x73, 0x65, 0x2f, 0x42, 0x69, 0x61, 0x73, 0x41,
  0x64, 0x64, 0x00, 0x00, 0x02, 0x00, 0x00, 0x00, 0xff, 0xff, 0xff, 0xff,
  0x10, 0x00, 0x00, 0x00, 0xa8, 0xd1, 0xff, 0xff, 0x00, 0x00, 0x0a, 0x00,
  0x10, 0x00, 0x04, 0x00, 0x08, 0x00, 0x0c, 0x00, 0x0a, 0x00, 0x00, 0x00,
  0x02, 0x00, 0x00, 0x00, 0x10, 0x00, 0x00, 0x00, 0x04, 0x00, 0x00, 0x00,
  0x01, 0x00, 0x00, 0x00, 0x0e, 0x00, 0x00, 0x00, 0x02, 0x00, 0x00, 0x00,
  0x0d, 0x00, 0x00, 0x00, 0x05, 0x00, 0x00, 0x00, 0xa8, 0xfc, 0xff, 0xff,
  0x16, 0x00, 0x00, 0x00, 0x00, 0x00, 0x00, 0x16, 0x01, 0x00, 0x00, 0x00,
  0x48, 0xd1, 0xff, 0xff, 0x14, 0x00, 0x00, 0x00, 0x0f, 0x00, 0x00, 0x00,
  0x18, 0x00, 0x00, 0x00, 0x40, 0x00, 0x00, 0x00, 0x30, 0x00, 0x00, 0x00,
  0x02, 0x00, 0x00, 0x00, 0x01, 0x00, 0x00, 0x00, 0x70, 0x00, 0x00, 0x00,
  0x1a, 0x00, 0x00, 0x00, 0x73, 0x65, 0x71, 0x75, 0x65, 0x6e, 0x74, 0x69,
  0x61, 0x6c, 0x2f, 0x66, 0x6c, 0x61, 0x74, 0x74, 0x65, 0x6e, 0x2f, 0x52,
  0x65, 0x73, 0x68, 0x61, 0x70, 0x65, 0x00, 0x00, 0x02, 0x00, 0x00, 0x00,
  0xff, 0xff, 0xff, 0xff, 0x70, 0x00, 0x00, 0x00, 0x2c, 0xd1, 0xff, 0xff,
  0x3e, 0xfe, 0xff, 0xff, 0x00, 0x00, 0x00, 0x05, 0x01, 0x00, 0x00, 0x00,
  0x38, 0x00, 0x00, 0x00, 0x2c, 0x00, 0x00, 0x00, 0x14, 0x00, 0x00, 0x00,
  0x00, 0x00, 0x0e, 0x00, 0x14, 0x00, 0x00, 0x00, 0x10, 0x00, 0x0c, 0x00,
  0x08, 0x00, 0x04, 0x00, 0x0e, 0x00, 0x00, 0x00, 0x03, 0x00, 0x00, 0x00,
  0x01, 0x00, 0x00, 0x00, 0x03, 0x00, 0x00, 0x00, 0x01, 0x00, 0x00, 0x00,
  0x01, 0x00, 0x00, 0x00, 0x0d, 0x00, 0x00, 0x00, 0x01, 0x00, 0x00, 0x00,
  0x0c, 0x00, 0x00, 0x00, 0xe8, 0xd1, 0xff, 0xff, 0x14, 0x00, 0x00, 0x00,
  0x0e, 0x00, 0x00, 0x00, 0x20, 0x00, 0x00, 0x00, 0x58, 0x00, 0x00, 0x00,
  0x40, 0x00, 0x00, 0x00, 0x04, 0x00, 0x00, 0x00, 0x01, 0x00, 0x00, 0x00,
  0x07, 0x00, 0x00, 0x00, 0x01, 0x00, 0x00, 0x00, 0x10, 0x00, 0x00, 0x00,
  0x22, 0x00, 0x00, 0x00, 0x73, 0x65, 0x71, 0x75, 0x65, 0x6e, 0x74, 0x69,
  0x61, 0x6c, 0x2f, 0x6d, 0x61, 0x78, 0x5f, 0x70, 0x6f, 0x6f, 0x6c, 0x69,
  0x6e, 0x67, 0x32, 0x64, 0x5f, 0x31, 0x2f, 0x4d, 0x61, 0x78, 0x50, 0x6f,
  0x6f, 0x6c, 0x00, 0x00, 0x04, 0x00, 0x00, 0x00, 0xff, 0xff, 0xff, 0xff,
  0x07, 0x00, 0x00, 0x00, 0x01, 0x00, 0x00, 0x00, 0x10, 0x00, 0x00, 0x00,
  0xe4, 0xd1, 0xff, 0xff, 0x1a, 0xfe, 0xff, 0xff, 0x00, 0x00, 0x00, 0x01,
  0x24, 0x00, 0x00, 0x00, 0x18, 0x00, 0x00, 0x00, 0x04, 0x00, 0x00, 0x00,
  0x0c, 0xfe, 0xff, 0xff, 0x01, 0x00, 0x00, 0x00, 0x01, 0x00, 0x00, 0x00,
  0x00, 0x00, 0x00, 0x01, 0x01, 0x00, 0x00, 0x00, 0x0c, 0x00, 0x00, 0x00,
  0x03, 0x00, 0x00, 0x00, 0x0b, 0x00, 0x00, 0x00, 0x09, 0x00, 0x00, 0x00,
  0x02, 0x00, 0x00, 0x00, 0x90, 0xd2, 0xff, 0xff, 0x14, 0x00, 0x00, 0x00,
  0x0d, 0x00, 0x00, 0x00, 0x20, 0x00, 0x00, 0x00, 0xb8, 0x00, 0x00, 0x00,
  0xa0, 0x00, 0x00, 0x00, 0x04, 0x00, 0x00, 0x00, 0x01, 0x00, 0x00, 0x00,
  0x15, 0x00, 0x00, 0x00, 0x01, 0x00, 0x00, 0x00, 0x10, 0x00, 0x00, 0x00,
  0x83, 0x00, 0x00, 0x00, 0x73, 0x65, 0x71, 0x75, 0x65, 0x6e, 0x74, 0x69,
  0x61, 0x6c, 0x2f, 0x63, 0x6f, 0x6e, 0x76, 0x32, 0x64, 0x5f, 0x31, 0x2f,
  0x52, 0x65, 0x6c, 0x75, 0x3b, 0x73, 0x65, 0x71, 0x75, 0x65, 0x6e, 0x74,
  0x69, 0x61, 0x6c, 0x2f, 0x63, 0x6f, 0x6e, 0x76, 0x32, 0x64, 0x5f, 0x31,
  0x2f, 0x42, 0x69, 0x61, 0x73, 0x41, 0x64, 0x64, 0x3b, 0x73, 0x65, 0x71,
  0x75, 0x65, 0x6e, 0x74, 0x69, 0x61, 0x6c, 0x2f, 0x63, 0x6f, 0x6e, 0x76,
  0x32, 0x64, 0x5f, 0x31, 0x2f, 0x43, 0x6f, 0x6e, 0x76, 0x32, 0x44, 0x3b,
  0x73, 0x65, 0x71, 0x75, 0x65, 0x6e, 0x74, 0x69, 0x61, 0x6c, 0x2f, 0x63,
  0x6f, 0x6e, 0x76, 0x32, 0x64, 0x5f, 0x31, 0x2f, 0x42, 0x69, 0x61, 0x73,
  0x41, 0x64, 0x64, 0x2f, 0x52, 0x65, 0x61, 0x64, 0x56, 0x61, 0x72, 0x69,
  0x61, 0x62, 0x6c, 0x65, 0x4f, 0x70, 0x2f, 0x72, 0x65, 0x73, 0x6f, 0x75,
  0x72, 0x63, 0x65, 0x00, 0x04, 0x00, 0x00, 0x00, 0xff, 0xff, 0xff, 0xff,
  0x15, 0x00, 0x00, 0x00, 0x01, 0x00, 0x00, 0x00, 0x10, 0x00, 0x00, 0x00,
  0xfc, 0xd3, 0xff, 0xff, 0x00, 0x00, 0x0e, 0x00, 0x1a, 0x00, 0x08, 0x00,
  0x0c, 0x00, 0x10, 0x00, 0x07, 0x00, 0x14, 0x00, 0x0e, 0x00, 0x00, 0x00,
  0x00, 0x00, 0x00, 0x05, 0x01, 0x00, 0x00, 0x00, 0x3c, 0x00, 0x00, 0x00,
  0x30, 0x00, 0x00, 0x00, 0x14, 0x00, 0x00, 0x00, 0x00, 0x00, 0x0e, 0x00,
  0x18, 0x00, 0x17, 0x00, 0x10, 0x00, 0x0c, 0x00, 0x08, 0x00, 0x04, 0x00,
  0x0e, 0x00, 0x00, 0x00, 0x03, 0x00, 0x00, 0x00, 0x03, 0x00, 0x00, 0x00,
  0x03, 0x00, 0x00, 0x00, 0x03, 0x00, 0x00, 0x00, 0x00, 0x00, 0x00, 0x01,
  0x01, 0x00, 0x00, 0x00, 0x0b, 0x00, 0x00, 0x00, 0x01, 0x00, 0x00, 0x00,
  0x0a, 0x00, 0x00, 0x00, 0x2c, 0xff, 0xff, 0xff, 0x11, 0x00, 0x00, 0x00,
  0x00, 0x00, 0x00, 0x11, 0x01, 0x00, 0x00, 0x00, 0xcc, 0xd3, 0xff, 0xff,
  0x14, 0x00, 0x00, 0x00, 0x0c, 0x00, 0x00, 0x00, 0x20, 0x00, 0x00, 0x00,
  0x58, 0x00, 0x00, 0x00, 0x40, 0x00, 0x00, 0x00, 0x04, 0x00, 0x00, 0x00,
  0x01, 0x00, 0x00, 0x00, 0x15, 0x00, 0x00, 0x00, 0x01, 0x00, 0x00, 0x00,
  0x08, 0x00, 0x00, 0x00, 0x20, 0x00, 0x00, 0x00, 0x73, 0x65, 0x71, 0x75,
  0x65, 0x6e, 0x74, 0x69, 0x61, 0x6c, 0x2f, 0x6d, 0x61, 0x78, 0x5f, 0x70,
  0x6f, 0x6f, 0x6c, 0x69, 0x6e, 0x67, 0x32, 0x64, 0x2f, 0x4d, 0x61, 0x78,
  0x50, 0x6f, 0x6f, 0x6c, 0x00, 0x00, 0x00, 0x00, 0x04, 0x00, 0x00, 0x00,
  0xff, 0xff, 0xff, 0xff, 0x15, 0x00, 0x00, 0x00, 0x01, 0x00, 0x00, 0x00,
  0x08, 0x00, 0x00, 0x00, 0xd8, 0xd4, 0xff, 0xff, 0x00, 0x00, 0x0e, 0x00,
  0x14, 0x00, 0x00, 0x00, 0x08, 0x00, 0x0c, 0x00, 0x07, 0x00, 0x10, 0x00,
  0x0e, 0x00, 0x00, 0x00, 0x00, 0x00, 0x00, 0x01, 0x30, 0x00, 0x00, 0x00,
  0x24, 0x00, 0x00, 0x00, 0x10, 0x00, 0x00, 0x00, 0x0c, 0x00, 0x10, 0x00,
  0x00, 0x00, 0x04, 0x00, 0x08, 0x00, 0x0f, 0x00, 0x0c, 0x00, 0x00, 0x00,
  0x01, 0x00, 0x00, 0x00, 0x01, 0x00, 0x00, 0x00, 0x00, 0x00, 0x00, 0x01,
  0x01, 0x00, 0x00, 0x00, 0x0a, 0x00, 0x00, 0x00, 0x03, 0x00, 0x00, 0x00,
  0x00, 0x00, 0x00, 0x00, 0x08, 0x00, 0x00, 0x00, 0x01, 0x00, 0x00, 0x00,
  0x0c, 0x00, 0x10, 0x00, 0x0b, 0x00, 0x00, 0x00, 0x0c, 0x00, 0x04, 0x00,
  0x0c, 0x00, 0x00, 0x00, 0x03, 0x00, 0x00, 0x00, 0x00, 0x00, 0x00, 0x03,
  0x01, 0x00, 0x00, 0x00, 0xac, 0xd4, 0xff, 0xff, 0x14, 0x00, 0x00, 0x00,
  0x0b, 0x00, 0x00, 0x00, 0x20, 0x00, 0x00, 0x00, 0xb0, 0x00, 0x00, 0x00,
  0x98, 0x00, 0x00, 0x00, 0x04, 0x00, 0x00, 0x00, 0x01, 0x00, 0x00, 0x00,
  0x40, 0x00, 0x00, 0x00, 0x03, 0x00, 0x00, 0x00, 0x08, 0x00, 0x00, 0x00,
  0x7b, 0x00, 0x00, 0x00, 0x73, 0x65, 0x71, 0x75, 0x65, 0x6e, 0x74, 0x69,
  0x61, 0x6c, 0x2f, 0x63, 0x6f, 0x6e, 0x76, 0x32, 0x64, 0x2f, 0x52, 0x65,
  0x6c, 0x75, 0x3b, 0x73, 0x65, 0x71, 0x75, 0x65, 0x6e, 0x74, 0x69, 0x61,
  0x6c, 0x2f, 0x63, 0x6f, 0x6e, 0x76, 0x32, 0x64, 0x2f, 0x42, 0x69, 0x61,
  0x73, 0x41, 0x64, 0x64, 0x3b, 0x73, 0x65, 0x71, 0x75, 0x65, 0x6e, 0x74,
  0x69, 0x61, 0x6c, 0x2f, 0x63, 0x6f, 0x6e, 0x76, 0x32, 0x64, 0x2f, 0x43,
  0x6f, 0x6e, 0x76, 0x32, 0x44, 0x3b, 0x73, 0x65, 0x71, 0x75, 0x65, 0x6e,
  0x74, 0x69, 0x61, 0x6c, 0x2f, 0x63, 0x6f, 0x6e, 0x76, 0x32, 0x64, 0x2f,
  0x42, 0x69, 0x61, 0x73, 0x41, 0x64, 0x64, 0x2f, 0x52, 0x65, 0x61, 0x64,
  0x56, 0x61, 0x72, 0x69, 0x61, 0x62, 0x6c, 0x65, 0x4f, 0x70, 0x2f, 0x72,
  0x65, 0x73, 0x6f, 0x75, 0x72, 0x63, 0x65, 0x00, 0x04, 0x00, 0x00, 0x00,
  0xff, 0xff, 0xff, 0xff, 0x40, 0x00, 0x00, 0x00, 0x03, 0x00, 0x00, 0x00,
  0x08, 0x00, 0x00, 0x00, 0x00, 0xd5, 0xff, 0xff, 0x0a, 0xd6, 0xff, 0xff,
  0x04, 0x00, 0x00, 0x00, 0x00, 0x08, 0x00, 0x00, 0xcf, 0x4d, 0x33, 0xbc,
  0xad, 0x7a, 0x9e, 0xbe, 0x65, 0xcc, 0x55, 0x3d, 0x7f, 0xfb, 0x3c, 0xbe,
  0x5f, 0xe9, 0xad, 0x3d, 0xeb, 0x12, 0x82, 0xbe, 0x20, 0x4d, 0x35, 0xbe,
  0xa6, 0x7f, 0xd9, 0x3a, 0x3c, 0xaf, 0xe7, 0x3c, 0x13, 0xcd, 0x1b, 0x3e,
  0x22, 0xf9, 0xb0, 0xbe, 0xc7, 0x68, 0x04, 0xbe, 0x1a, 0x17, 0x75, 0xbe,
  0x6c, 0x87, 0xff, 0xbc, 0xb7, 0xe6, 0xf1, 0xbd, 0xd4, 0xb0, 0xf0, 0xbd,
  0x30, 0xbc, 0x1a, 0xbd, 0xe9, 0x0d, 0xa4, 0xbc, 0xc6, 0x6a, 0xe0, 0xbd,
  0x85, 0x0e, 0x33, 0xbe, 0x1e, 0x1c, 0x25, 0xbe, 0x3e, 0x54, 0xa1, 0xbe,
  0x12, 0x20, 0x0f, 0xbe, 0x35, 0x50, 0x0e, 0xbf, 0x7e, 0x21, 0x5d, 0xbe,
  0xad, 0xcb, 0xce, 0xbe, 0x55, 0x0e, 0x2e, 0xbe, 0x43, 0x8e, 0x93, 0xbe,
  0x1f, 0xab, 0x8b, 0xbe, 0x52, 0x68, 0xfe, 0xbd, 0x5e, 0xe6, 0x3f, 0xbe,
  0x23, 0xba, 0xbf, 0xbc, 0x44, 0xad, 0xaf, 0x3d, 0x7e, 0x58, 0x9f, 0x3e,
  0x73, 0x0c, 0x64, 0xbf, 0xec, 0x57, 0x88, 0xbc, 0x54, 0x38, 0x5f, 0xbe,
  0x27, 0x27, 0xd4, 0x3e, 0x6f, 0xa0, 0x08, 0xbf, 0x2d, 0xad, 0x71, 0xbe,
  0x65, 0x58, 0x26, 0x3d, 0xa2, 0x45, 0x34, 0x3e, 0xa4, 0xec, 0x0d, 0x3e,
  0xb5, 0x59, 0x62, 0xbe, 0xba, 0xca, 0xa5, 0x3c, 0x7b, 0x34, 0xda, 0xbd,
  0x94, 0x0d, 0x0c, 0xbf, 0x4c, 0x07, 0x61, 0x3e, 0x7c, 0x6a, 0x5b, 0xbc,
  0x5a, 0xee, 0xa6, 0xbe, 0x61, 0xb0, 0xee, 0x3d, 0x92, 0xb3, 0x1f, 0xbe,
  0x2e, 0x6d, 0x8a, 0x3e, 0x37, 0x6a, 0x45, 0x3c, 0x1d, 0xcc, 0x1b, 0xbe,
  0x08, 0x63, 0xf5, 0x3d, 0x47, 0xa1, 0x4b, 0xbd, 0x27, 0x89, 0x99, 0xbd,
  0xff, 0x8b, 0x73, 0xbd, 0xc9, 0xc2, 0x47, 0x3b, 0x79, 0x96, 0x22, 0xbd,
  0x60, 0x75, 0x32, 0xbe, 0x63, 0x2b, 0xc6, 0x3d, 0x5b, 0x0a, 0xea, 0x3c,
  0x96, 0xd2, 0x67, 0xbd, 0x7e, 0x25, 0xbf, 0x3d, 0xfb, 0xcf, 0x31, 0x3e,
  0xaf, 0xbf, 0x76, 0x3c, 0x8c, 0xe2, 0x5c, 0xbe, 0xb2, 0xc3, 0x5b, 0x3f,
  0x65, 0x9c, 0x7d, 0xbe, 0xe5, 0xe8, 0x99, 0xbd, 0x2a, 0xb6, 0xf8, 0xbb,
  0x93, 0x0f, 0x90, 0x3d, 0x37, 0x06, 0x3e, 0x3e, 0x3a, 0xee, 0xfe, 0xbd,
  0xea, 0x0c, 0x0e, 0xbd, 0x61, 0x0e, 0xba, 0xbd, 0x6d, 0xce, 0x5f, 0xbe,
  0xd1, 0xac, 0x08, 0xbd, 0x62, 0xb7, 0x94, 0xbb, 0xb6, 0x34, 0x10, 0x3d,
  0x64, 0x1b, 0x85, 0x3e, 0xb4, 0xc5, 0xd8, 0xbd, 0x87, 0x40, 0x71, 0xbe,
  0xb9, 0xa0, 0xa2, 0x3c, 0x7f, 0x2f, 0x38, 0xbe, 0x00, 0x3c, 0xb7, 0xbd,
  0x89, 0xc6, 0xaf, 0x3a, 0x99, 0x64, 0xf1, 0x3d, 0x39, 0xb5, 0x22, 0x3e,
  0x53, 0xdd, 0xe5, 0xbd, 0xfd, 0x2b, 0x1e, 0xbe, 0xc3, 0x7c, 0xfd, 0x3d,
  0xb0, 0xca, 0xcc, 0xbd, 0x3c, 0x11, 0x01, 0xbe, 0xe6, 0x7b, 0x05, 0x3c,
  0xad, 0x4b, 0xb5, 0x3e, 0x29, 0x40, 0x48, 0xbe, 0xd6, 0x2c, 0x5a, 0xbe,
  0xf6, 0xd9, 0x08, 0xbd, 0xb4, 0x2b, 0xe5, 0x3d, 0xa6, 0x31, 0x9f, 0xbe,
  0x2c, 0x3f, 0x2e, 0xbd, 0xaf, 0x7a, 0x83, 0xbd, 0x62, 0x13, 0x54, 0xbd,
  0xdf, 0x61, 0x06, 0xbe, 0x32, 0x4b, 0x7c, 0xbe, 0x13, 0x53, 0x94, 0xbc,
  0x8c, 0x0a, 0x30, 0x3e, 0x8e, 0x3f, 0x91, 0xbe, 0x0d, 0xc4, 0xc7, 0x3e,
  0xf3, 0x9c, 0xf0, 0xbd, 0xa1, 0xd0, 0x0b, 0xbf, 0xd5, 0x45, 0x42, 0x3d,
  0x73, 0xdf, 0x47, 0xbe, 0x7a, 0x1c, 0x25, 0x3e, 0xde, 0x65, 0x57, 0xbe,
  0x5e, 0x64, 0xcb, 0xbd, 0x57, 0xa6, 0x49, 0xbd, 0xba, 0x04, 0x3f, 0xbe,
  0xcb, 0x2c, 0xb5, 0xbe, 0x20, 0x02, 0xbf, 0x3e, 0x8c, 0xbd, 0x17, 0xbc,
  0xa1, 0x43, 0xa4, 0x3c, 0x02, 0x4c, 0x6e, 0xbe, 0x5f, 0xdb, 0xac, 0x3e,
  0x7f, 0xf6, 0x1d, 0xbd, 0xd8, 0xd3, 0x07, 0xbe, 0xf2, 0x1c, 0x14, 0x3f,
  0xea, 0xa0, 0x9a, 0xbd, 0x1d, 0xe1, 0xfa, 0xbd, 0x73, 0x72, 0x2b, 0x3e,
  0x8e, 0x48, 0x93, 0xbe, 0xf8, 0x81, 0x17, 0x3e, 0xad, 0x0e, 0x8e, 0xbe,
  0xf6, 0xbe, 0xf1, 0xbd, 0x61, 0xf1, 0x0c, 0x3e, 0xf1, 0xce, 0x21, 0xbe,
  0x7b, 0xd0, 0x28, 0xbe, 0x5c, 0xf8, 0x33, 0x3e, 0x1f, 0xc2, 0xad, 0xbe,
  0xf5, 0x21, 0xd9, 0xbd, 0x9f, 0xb2, 0x8d, 0xbe, 0x82, 0xde, 0xb9, 0xbd,
  0x55, 0x64, 0x85, 0x3d, 0x06, 0xba, 0x4a, 0x3d, 0x31, 0x10, 0x98, 0xbd,
  0x18, 0xe3, 0x3e, 0xbd, 0xc8, 0xbf, 0x43, 0xbe, 0x5d, 0x92, 0x81, 0xbe,
  0x7b, 0x84, 0x80, 0xbe, 0x83, 0x6e, 0xaf, 0x3e, 0x36, 0xb5, 0x2c, 0xbc,
  0xff, 0xb9, 0x21, 0x3e, 0xfa, 0x17, 0x4e, 0x3e, 0x85, 0x3d, 0x1d, 0xbe,
  0xe5, 0x18, 0x04, 0xbe, 0x35, 0x4f, 0x73, 0xbe, 0x67, 0x09, 0xe1, 0xbc,
  0xee, 0xac, 0x98, 0xbc, 0x38, 0xf8, 0x70, 0x3d, 0x18, 0x97, 0x81, 0xbd,
  0x6d, 0x33, 0xc1, 0xbe, 0x8c, 0xda, 0x9c, 0x3e, 0xc6, 0x78, 0x85, 0x3e,
  0x8b, 0x85, 0xae, 0xbd, 0x2c, 0x6f, 0x11, 0x3d, 0x8b, 0x61, 0x3d, 0xbe,
  0xfb, 0x48, 0xc4, 0x3d, 0x4e, 0x1f, 0x3d, 0x3e, 0x26, 0x4a, 0xc9, 0xbe,
  0x1b, 0xa8, 0xa7, 0x3d, 0xfb, 0xce, 0xec, 0x3d, 0xd8, 0xd5, 0x26, 0xbe,
  0x6d, 0xb1, 0x50, 0x3d, 0xa4, 0x44, 0x30, 0xbf, 0xff, 0x9f, 0x8d, 0xbe,
  0xdb, 0xad, 0x62, 0x3d, 0xb0, 0x24, 0x29, 0xbe, 0xe9, 0x9d, 0x27, 0x3e,
  0x5e, 0x90, 0x60, 0x3d, 0x2b, 0xb8, 0xeb, 0xba, 0x4d, 0x88, 0x3e, 0x3e,
  0xa2, 0xca, 0x58, 0xbf, 0x77, 0xa4, 0xcf, 0x3d, 0x24, 0x48, 0x90, 0x3d,
  0xde, 0xf1, 0x69, 0x3c, 0x86, 0x80, 0x41, 0x3e, 0x87, 0xa6, 0x74, 0xbe,
  0xa4, 0xe4, 0x61, 0x3e, 0x05, 0x9b, 0x8a, 0xbc, 0x2f, 0x36, 0xce, 0xbd,
  0x02, 0x89, 0xf2, 0xbc, 0xcf, 0x14, 0x1b, 0xbf, 0xee, 0xf8, 0xdb, 0xbd,
  0x2e, 0x8d, 0x33, 0x3e, 0x60, 0xd2, 0x00, 0xbd, 0x89, 0xf1, 0xa0, 0xbd,
  0xd4, 0x66, 0xaa, 0x3e, 0xdd, 0xc4, 0xae, 0xbd, 0x42, 0x6e, 0x59, 0x3d,
  0xca, 0x5e, 0x10, 0xbf, 0x35, 0x1b, 0xee, 0xbc, 0x2c, 0xb8, 0x3d, 0x3d,
  0x2f, 0x3e, 0xa9, 0xbe, 0xd7, 0x48, 0xbf, 0xbd, 0x7b, 0x7f, 0xbf, 0xbc,
  0x58, 0x9c, 0x7e, 0xbd, 0xe5, 0xa3, 0xfb, 0xbd, 0x13, 0x5d, 0x3a, 0xbf,
  0x5d, 0x7f, 0xbf, 0xbd, 0x6d, 0xca, 0xd7, 0x3d, 0x5d, 0x20, 0x9f, 0x3d,
  0xdd, 0xd8, 0x95, 0x3c, 0x83, 0x05, 0x29, 0x3e, 0x31, 0xde, 0x81, 0xbd,
  0xf3, 0x02, 0xf0, 0x3d, 0x7e, 0x0e, 0x4a, 0xbf, 0x9a, 0xff, 0x02, 0xbe,
  0xb0, 0x66, 0x1a, 0x3e, 0x9a, 0x63, 0xac, 0x3d, 0xa5, 0x47, 0x2a, 0xbe,
  0xa1, 0x99, 0x60, 0x3d, 0xf2, 0xea, 0xe0, 0xbd, 0x34, 0xb8, 0x32, 0xbe,
  0x17, 0xd1, 0xb1, 0x3d, 0x70, 0x4c, 0xbd, 0xbd, 0xd0, 0xcf, 0x51, 0xbe,
  0x16, 0xe1, 0x50, 0x3e, 0x1f, 0x3b, 0x11, 0xbd, 0xfa, 0x81, 0x31, 0xbe,
  0xb2, 0xfc, 0x20, 0xbd, 0xf0, 0x9d, 0xa2, 0xbe, 0xc8, 0x16, 0x4f, 0xbe,
  0xeb, 0x98, 0x2a, 0xbe, 0xe1, 0x72, 0x9a, 0xbe, 0xeb, 0x32, 0xe3, 0xbc,
  0x4d, 0x6f, 0xdd, 0xbd, 0xe0, 0xf2, 0x95, 0x3c, 0x08, 0xfe, 0x28, 0xbc,
  0xf0, 0x00, 0x96, 0xbe, 0x7d, 0x19, 0xf7, 0xbd, 0xa5, 0x9f, 0xe3, 0xbd,
  0xca, 0x38, 0x5c, 0xbe, 0x1e, 0xcb, 0xd4, 0x3d, 0x71, 0x7b, 0x59, 0xbd,
  0xd9, 0x7c, 0xe5, 0xbd, 0x58, 0x8f, 0x9b, 0xbd, 0x6a, 0xda, 0x08, 0x3e,
  0x3a, 0xf1, 0x98, 0xbd, 0x0f, 0xf7, 0x93, 0xbd, 0x45, 0xeb, 0x34, 0xbe,
  0x05, 0xc4, 0x39, 0xbe, 0x1b, 0x5e, 0x91, 0xbd, 0xf8, 0x89, 0xc5, 0x3c,
  0xa6, 0x43, 0xf0, 0xbe, 0x0a, 0x3a, 0xef, 0x3e, 0x5f, 0xf8, 0x69, 0x3d,
  0x64, 0xc4, 0x8e, 0xbd, 0x1c, 0xdd, 0xef, 0xbd, 0xaa, 0xb1, 0x88, 0x3d,
  0x21, 0xc9, 0x59, 0x3e, 0x32, 0x71, 0x08, 0x3e, 0x00, 0xac, 0x6f, 0xbe,
  0x0c, 0xad, 0x4c, 0x3d, 0x27, 0xd4, 0xf7, 0xbe, 0xd0, 0xf2, 0xa0, 0x39,
  0xa9, 0xc5, 0x80, 0xbc, 0xc3, 0xb2, 0xb0, 0xbd, 0xd8, 0x0e, 0x49, 0xbd,
  0x6b, 0xd9, 0xf6, 0xbe, 0x31, 0x82, 0xa8, 0xbd, 0xa6, 0xcf, 0x9c, 0x3e,
  0x28, 0x57, 0xb4, 0xbe, 0xe1, 0x03, 0x12, 0xbc, 0x98, 0x32, 0x69, 0xbd,
  0xa1, 0xf8, 0xe7, 0xbd, 0x04, 0xd3, 0x84, 0xbd, 0x98, 0x0c, 0x8e, 0xbe,
  0x2b, 0x32, 0x84, 0x3e, 0x55, 0xc8, 0x24, 0x3e, 0xad, 0x17, 0xa6, 0xbe,
  0x5a, 0x79, 0xc8, 0xbd, 0xc9, 0xe0, 0x3c, 0x3a, 0xfc, 0x3d, 0x21, 0xbc,
  0xef, 0x17, 0xd1, 0xbd, 0xd8, 0x7f, 0xc1, 0xbd, 0x62, 0xea, 0x06, 0xbe,
  0xb7, 0x0b, 0x05, 0xbf, 0x1e, 0x1c, 0x2f, 0xbe, 0x82, 0x47, 0x45, 0x3d,
  0x56, 0xa4, 0xbe, 0xbd, 0x75, 0x9b, 0xa3, 0xbe, 0xb8, 0xe2, 0xfe, 0x3b,
  0x69, 0x1c, 0x89, 0xbe, 0x34, 0x3b, 0xab, 0xbc, 0xa0, 0xdf, 0xc8, 0x3d,
  0x7a, 0xd8, 0x0d, 0x3d, 0xbe, 0xc6, 0x0c, 0x3e, 0xde, 0x5c, 0x38, 0x3e,
  0x62, 0x07, 0x49, 0x3d, 0xec, 0x0f, 0x75, 0x3c, 0x8f, 0x61, 0xf2, 0xbd,
  0x4a, 0x36, 0x1a, 0x3e, 0x2c, 0x94, 0xf6, 0xbe, 0x27, 0xad, 0x72, 0xbd,
  0x13, 0x78, 0x6b, 0xbd, 0x75, 0x66, 0x94, 0xbc, 0x9b, 0x0b, 0xf1, 0xbd,
  0x65, 0x89, 0x7a, 0xbd, 0xae, 0x22, 0x4c, 0xbe, 0x5c, 0x08, 0x85, 0x3d,
  0x5a, 0x67, 0x90, 0xbe, 0xca, 0x65, 0xe7, 0x3d, 0x24, 0x99, 0xbd, 0xbb,
  0xe0, 0x69, 0x68, 0x3d, 0x24, 0x02, 0xf1, 0x3c, 0x76, 0xbb, 0x55, 0x3e,
  0x9c, 0x22, 0x8e, 0xbd, 0xf7, 0xeb, 0xd5, 0xbc, 0x4f, 0x71, 0x45, 0x3d,
  0xfd, 0x60, 0xd4, 0x3d, 0x41, 0xce, 0x22, 0xbd, 0xa1, 0xc5, 0x8d, 0x3e,
  0x35, 0x3d, 0x83, 0x3d, 0x52, 0x24, 0xec, 0x3c, 0xf8, 0x5f, 0xb6, 0x3d,
  0xc9, 0xbb, 0xe9, 0x3c, 0xb2, 0x6f, 0x15, 0xbe, 0x76, 0x1f, 0x8a, 0x3c,
  0x6d, 0x4f, 0x61, 0x3d, 0x59, 0xa8, 0x95, 0x3d, 0xb9, 0x01, 0x08, 0x3e,
  0x99, 0xe6, 0xea, 0x3d, 0xae, 0x6c, 0xd6, 0xbd, 0x3b, 0xf6, 0x82, 0x3d,
  0xb4, 0x15, 0x15, 0xbd, 0x5e, 0xfe, 0xbc, 0xbd, 0x89, 0x39, 0x39, 0xbd,
  0x50, 0xe3, 0x12, 0xbd, 0x77, 0x7e, 0x32, 0x3e, 0x2e, 0xb7, 0x98, 0xbd,
  0x85, 0x84, 0x2e, 0xbc, 0x44, 0xdf, 0x9a, 0x3c, 0x1a, 0x61, 0x66, 0x3d,
  0x7c, 0x19, 0x71, 0xbd, 0xb2, 0x8a, 0xe2, 0x3d, 0x52, 0x63, 0xd3, 0xbd,
  0x79, 0x37, 0xab, 0xbd, 0xdd, 0x0e, 0xe0, 0xbc, 0xc1, 0x05, 0xe3, 0xbd,
  0x6a, 0x16, 0x9c, 0x3c, 0x86, 0x92, 0x85, 0xbe, 0x35, 0x47, 0x7d, 0xbe,
  0xa9, 0x98, 0x9f, 0x3b, 0x06, 0x96, 0xf6, 0xbe, 0x6e, 0x35, 0x2d, 0xbd,
  0x28, 0xe7, 0x33, 0xbf, 0xc9, 0x31, 0x2c, 0xbe, 0xea, 0x12, 0xba, 0x3d,
  0xe3, 0x6b, 0xd1, 0x3e, 0xb9, 0xfc, 0xdd, 0x3d, 0xdf, 0xbd, 0x33, 0xbe,
  0x4a, 0x10, 0xcf, 0xbc, 0xbf, 0x7c, 0x28, 0x3e, 0xbd, 0x99, 0x6f, 0xbf,
  0x9b, 0x5a, 0xaf, 0xbc, 0x6c, 0x85, 0x81, 0xbe, 0x61, 0xe7, 0xbc, 0xbe,
  0x31, 0x3e, 0x6d, 0x3e, 0xec, 0x65, 0xe9, 0xbe, 0x0c, 0xbb, 0x7e, 0x3d,
  0x42, 0x52, 0xed, 0xbe, 0xf5, 0x03, 0x76, 0xbe, 0x8c, 0x13, 0x6f, 0x3e,
  0x08, 0x47, 0x6a, 0xbf, 0x20, 0xdc, 0x6f, 0xbe, 0x8f, 0x73, 0x1d, 0x3e,
  0x02, 0x34, 0xca, 0xbd, 0x63, 0x2a, 0x8e, 0x3d, 0x7f, 0x6e, 0x5a, 0xbc,
  0x9d, 0x7b, 0x81, 0x3c, 0x80, 0x0f, 0x6a, 0x3d, 0x03, 0x4a, 0x87, 0x3c,
  0x98, 0x64, 0x35, 0xbf, 0x54, 0x17, 0x89, 0xbd, 0xaa, 0x7c, 0x04, 0xbd,
  0xec, 0x14, 0xe7, 0xbe, 0x9b, 0x65, 0x83, 0xbe, 0x28, 0x49, 0xb6, 0xbe,
  0x2e, 0xe2, 0x1b, 0xbe, 0x06, 0x76, 0x00, 0x3d, 0x67, 0x0a, 0x0e, 0xbf,
  0x80, 0x1d, 0x02, 0xbe, 0x01, 0x0e, 0x75, 0xbd, 0xa9, 0x48, 0xd3, 0xbe,
  0xbc, 0x6a, 0x47, 0xbe, 0x11, 0x0f, 0x98, 0xbe, 0x17, 0x36, 0xcd, 0xbb,
  0xfc, 0x0b, 0xb4, 0xbc, 0x7c, 0xc7, 0x02, 0x3e, 0x89, 0x01, 0x3c, 0xbe,
  0x2c, 0xa5, 0x94, 0xbd, 0x15, 0x71, 0x04, 0xbf, 0xfa, 0xd4, 0xcf, 0x3d,
  0x22, 0x08, 0x4f, 0xbe, 0xca, 0x4a, 0x53, 0xbe, 0xa0, 0x37, 0x85, 0x3e,
  0x22, 0x2f, 0xec, 0x3e, 0xfc, 0x6d, 0xa5, 0x3d, 0x33, 0x2c, 0x48, 0xbd,
  0xeb, 0x6e, 0x99, 0x3d, 0xf6, 0x8c, 0x93, 0x3e, 0xbf, 0x3c, 0xa5, 0xbe,
  0x5c, 0x5d, 0x3e, 0xbd, 0x77, 0x60, 0xa5, 0xbc, 0x31, 0x7f, 0x16, 0xbf,
  0xae, 0x87, 0x4a, 0x3c, 0x93, 0xfe, 0x32, 0xbc, 0x23, 0x20, 0x33, 0xbd,
  0x27, 0x25, 0xe8, 0xbc, 0x70, 0x62, 0xeb, 0xbc, 0xcf, 0xdb, 0xbf, 0x3b,
  0x7c, 0xfd, 0x58, 0xbe, 0xac, 0xb5, 0x16, 0xbd, 0x85, 0xad, 0xc7, 0x3c,
  0x52, 0x43, 0x0c, 0xbd, 0xdf, 0x0b, 0x99, 0xbd, 0x68, 0x95, 0xf9, 0x3a,
  0x89, 0x35, 0xec, 0x3c, 0x61, 0x1b, 0x0c, 0x3f, 0xbc, 0x7e, 0x25, 0xbf,
  0x9b, 0x30, 0xa8, 0x3e, 0x6f, 0x37, 0xcf, 0x3d, 0x14, 0x23, 0x60, 0xbd,
  0x74, 0x33, 0x31, 0x3d, 0xff, 0xb5, 0x27, 0x3e, 0xc1, 0x5a, 0x1c, 0xba,
  0xc5, 0xd1, 0xf2, 0xbd, 0xde, 0x30, 0xbd, 0xbe, 0x69, 0x83, 0x62, 0x3e,
  0x41, 0xb8, 0x77, 0xbe, 0x2d, 0x3e, 0x38, 0x39, 0x83, 0x89, 0x24, 0x3e,
  0x66, 0xad, 0x22, 0xbe, 0x33, 0x51, 0x08, 0xbd, 0x32, 0x46, 0x70, 0xbe,
  0xc2, 0xdf, 0x79, 0x3d, 0xe0, 0xb1, 0xb9, 0xbd, 0x1a, 0x58, 0x4d, 0x3d,
  0xa2, 0x8b, 0x07, 0xbe, 0xd2, 0x16, 0x32, 0x3f, 0x80, 0xcd, 0x7d, 0x3e,
  0x42, 0xe3, 0xb5, 0xbe, 0xe5, 0x8c, 0x8a, 0x3d, 0x85, 0xb3, 0xd1, 0xbd,
  0x00, 0xa3, 0x88, 0xbe, 0xe8, 0xd3, 0x71, 0x3d, 0x98, 0xd8, 0x36, 0xbe,
  0x28, 0x96, 0x86, 0xbe, 0x18, 0x2a, 0xb9, 0xbe, 0x32, 0xd0, 0xbc, 0xbd,
  0x7f, 0xdb, 0xe4, 0x3d, 0x69, 0x2f, 0x1b, 0xbd, 0xf2, 0x92, 0xb7, 0x3b,
  0xf5, 0x21, 0x14, 0xbd, 0x38, 0xac, 0x89, 0x3c, 0xfa, 0xab, 0x4c, 0xbe,
  0x27, 0x3e, 0x6c, 0xbd, 0xea, 0xde, 0x0c, 0xbb, 0x18, 0x05, 0xf8, 0xbd,
  0xd0, 0xc8, 0xb4, 0xbd, 0x15, 0xcc, 0x9c, 0x3c, 0x89, 0x5f, 0x15, 0xbf,
  0x2e, 0xdd, 0xd2, 0xbc, 0xba, 0x8a, 0xb8, 0xbe, 0xa7, 0xbe, 0x8e, 0xbd,
  0x7b, 0x16, 0xe3, 0x3a, 0x94, 0xbd, 0x3a, 0xbe, 0x70, 0x5a, 0xc0, 0xbd,
  0x11, 0xa9, 0x12, 0x3e, 0x97, 0xd8, 0xcc, 0xbe, 0x87, 0x65, 0x87, 0xbd,
  0x75, 0xdc, 0x8f, 0xbe, 0xc0, 0x46, 0xdb, 0xbe, 0xb3, 0x1e, 0xd2, 0xbd,
  0x98, 0x9d, 0xa2, 0xbe, 0x5f, 0xc5, 0x02, 0xbd, 0x71, 0x72, 0x9e, 0xbd,
  0x37, 0xa3, 0xbb, 0xbe, 0x6b, 0x19, 0x73, 0xbc, 0x23, 0x84, 0xd3, 0xbe,
  0x8a, 0x80, 0x1f, 0xbe, 0x19, 0x39, 0xf4, 0xbd, 0x51, 0xdc, 0x82, 0xbe,
  0x78, 0x37, 0x53, 0x3d, 0x69, 0xcb, 0x5e, 0xbd, 0xb7, 0xef, 0x18, 0x3d,
  0x5f, 0x05, 0x87, 0x3d, 0xa7, 0xcf, 0xe8, 0xbd, 0x4d, 0x69, 0xb7, 0x39,
  0x66, 0xc6, 0x99, 0xbd, 0x3f, 0x69, 0x13, 0x3d, 0x39, 0x9b, 0xb7, 0x3c,
  0xd2, 0x18, 0x85, 0x3e, 0x5b, 0x2b, 0xab, 0x3e, 0xd4, 0x48, 0x2b, 0x3d,
  0xe4, 0x6e, 0xce, 0xbd, 0x66, 0x42, 0xdd, 0x3c, 0xc0, 0xe4, 0x0a, 0x3e,
  0x70, 0x1e, 0xd8, 0x3e, 0xe2, 0xdd, 0xff, 0xff, 0x10, 0x00, 0x00, 0x00,
  0x0a, 0x00, 0x00, 0x00, 0x1c, 0x00, 0x00, 0x00, 0x38, 0x00, 0x00, 0x00,
  0x04, 0x00, 0x00, 0x00, 0x10, 0x00, 0x00, 0x00, 0x04, 0x00, 0x00, 0x00,
  0x01, 0x00, 0x00, 0x00, 0x08, 0x00, 0x00, 0x00, 0x1a, 0x00, 0x00, 0x00,
  0x73, 0x65, 0x71, 0x75, 0x65, 0x6e, 0x74, 0x69, 0x61, 0x6c, 0x2f, 0x63,
  0x6f, 0x6e, 0x76, 0x32, 0x64, 0x5f, 0x31, 0x2f, 0x43, 0x6f, 0x6e, 0x76,
  0x32, 0x44, 0x00, 0x00, 0x58, 0xdd, 0xff, 0xff, 0x62, 0xde, 0xff, 0xff,
  0x04, 0x00, 0x00, 0x00, 0x80, 0x01, 0x00, 0x00, 0x07, 0x0e, 0x9f, 0x3e,
  0xce, 0xc7, 0x0d, 0x3c, 0x6f, 0x78, 0x56, 0x3d, 0x62, 0x1d, 0xb9, 0xbe,
  0x93, 0xb7, 0xd3, 0xbd, 0x19, 0xfb, 0x09, 0x3d, 0xc0, 0xd1, 0x2c, 0x3f,
  0x2c, 0x71, 0xc4, 0x3b, 0xb7, 0xfe, 0xbd, 0x3d, 0x9b, 0x61, 0xe2, 0x3e,
  0x27, 0x95, 0x80, 0x3d, 0x21, 0x9d, 0xed, 0xbc, 0x19, 0x0d, 0x11, 0xbf,
  0xf4, 0x36, 0x36, 0xbd, 0xd2, 0x4c, 0xb9, 0x3c, 0x13, 0x0a, 0x25, 0xbe,
  0xd1, 0x6f, 0xde, 0x3b, 0x45, 0x3b, 0xfb, 0x3c, 0x17, 0xff, 0xeb, 0x3e,
  0x27, 0xdd, 0x7f, 0x3d, 0xd5, 0x67, 0x06, 0xbd, 0x38, 0x52, 0x92, 0x3e,
  0x78, 0xbd, 0x9c, 0x3c, 0x17, 0x45, 0x05, 0xbd, 0xfd, 0x9a, 0xe2, 0x3e,
  0xd9, 0xa8, 0xda, 0x3d, 0x9b, 0xbe, 0x23, 0x3e, 0x18, 0x23, 0x2c, 0x3e,
  0x8b, 0xfb, 0xb6, 0x3d, 0x79, 0x61, 0x93, 0x3d, 0xe5, 0xa9, 0xb6, 0xbe,
  0x6b, 0xd0, 0xa8, 0xbd, 0xd0, 0xac, 0x4f, 0xbd, 0x10, 0x50, 0x6f, 0xbd,
  0x97, 0xda, 0x93, 0xbe, 0x35, 0xf6, 0x69, 0xbe, 0x35, 0x65, 0x74, 0x3e,
  0xb5, 0x9d, 0x8d, 0xbe, 0x57, 0x04, 0x86, 0x3c, 0xfc, 0x52, 0x32, 0xbe,
  0x92, 0xcc, 0x12, 0xbd, 0xf8, 0xe4, 0xb4, 0x3c, 0x12, 0xcd, 0x98, 0xbd,
  0x61, 0x94, 0xdc, 0x3d, 0x36, 0x4c, 0x60, 0xbd, 0x44, 0x56, 0xf1, 0x3e,
  0x09, 0x3f, 0x93, 0xbe, 0xf0, 0xfa, 0x08, 0x3e, 0x77, 0xf3, 0xbf, 0x3d,
  0xfc, 0xb6, 0x73, 0x3e, 0x91, 0x91, 0x5f, 0x3e, 0xa0, 0xbf, 0x43, 0x3d,
  0x75, 0x91, 0x16, 0x3e, 0x7f, 0x60, 0x83, 0x3e, 0xc2, 0xcd, 0x81, 0xbd,
  0x5f, 0x91, 0x1b, 0xbe, 0xc0, 0x1a, 0x81, 0xbd, 0xf3, 0x10, 0x4c, 0xbd,
  0x8f, 0xb4, 0x2a, 0xbe, 0x00, 0x23, 0x6b, 0xbe, 0xe9, 0x0a, 0x32, 0x3e,
  0x04, 0xe4, 0xa0, 0xbd, 0xec, 0x1f, 0x9b, 0xbd, 0x9c, 0xbb, 0xf3, 0xbd,
  0x58, 0xb9, 0xe4, 0x3c, 0x1e, 0x5e, 0x0e, 0xbf, 0x40, 0x85, 0x2e, 0xbe,
  0x44, 0x87, 0x89, 0xbd, 0xed, 0x21, 0x49, 0x3e, 0x17, 0x15, 0xa7, 0x3e,
  0x1e, 0x7e, 0x4b, 0x3e, 0xf6, 0x49, 0xca, 0x3e, 0x00, 0xb9, 0x9a, 0x3c,
  0x7c, 0x5f, 0x7e, 0xbe, 0x3b, 0x5b, 0x1e, 0xbe, 0xe5, 0x43, 0x5a, 0xbd,
  0x8b, 0x34, 0xaa, 0xbd, 0xb1, 0x14, 0x80, 0x3e, 0x48, 0xf6, 0x1f, 0xbd,
  0xdc, 0x67, 0xc0, 0xbd, 0xef, 0x97, 0x06, 0xbd, 0xa9, 0x75, 0x21, 0xbe,
  0x97, 0xc6, 0x30, 0x3d, 0x34, 0x60, 0x1b, 0x3d, 0xc2, 0xb8, 0x6a, 0x3e,
  0x4e, 0xe0, 0xcd, 0x3c, 0x6c, 0x6f, 0x55, 0x3d, 0x46, 0x81, 0xfd, 0x3e,
  0x4f, 0x45, 0x51, 0x3e, 0x6c, 0x63, 0x9b, 0xbb, 0xa3, 0xea, 0x88, 0xbd,
  0x59, 0x52, 0xa1, 0xbd, 0x50, 0xde, 0x5c, 0x3c, 0x4d, 0x21, 0xc3, 0xbe,
  0xa1, 0x51, 0x30, 0xbe, 0x0e, 0x35, 0xf3, 0x3d, 0xba, 0xdf, 0xff, 0xff,
  0x10, 0x00, 0x00, 0x00, 0x09, 0x00, 0x00, 0x00, 0x1c, 0x00, 0x00, 0x00,
  0x38, 0x00, 0x00, 0x00, 0x04, 0x00, 0x00, 0x00, 0x08, 0x00, 0x00, 0x00,
  0x04, 0x00, 0x00, 0x00, 0x03, 0x00, 0x00, 0x00, 0x01, 0x00, 0x00, 0x00,
  0x18, 0x00, 0x00, 0x00, 0x73, 0x65, 0x71, 0x75, 0x65, 0x6e, 0x74, 0x69,
  0x61, 0x6c, 0x2f, 0x63, 0x6f, 0x6e, 0x76, 0x32, 0x64, 0x2f, 0x43, 0x6f,
  0x6e, 0x76, 0x32, 0x44, 0x00, 0x00, 0x00, 0x00, 0x30, 0xdf, 0xff, 0xff,
  0x3a, 0xe0, 0xff, 0xff, 0x04, 0x00, 0x00, 0x00, 0x00, 0x01, 0x00, 0x00,
  0xf9, 0x74, 0x29, 0xbe, 0xde, 0x74, 0x1d, 0x3e, 0x6d, 0x70, 0xd3, 0xbe,
  0xad, 0x39, 0x40, 0xbe, 0x21, 0x28, 0x0c, 0xbd, 0x89, 0xe0, 0x45, 0xbd,
  0x40, 0x76, 0x8e, 0xbe, 0x28, 0xa3, 0xa2, 0xbe, 0xd2, 0x63, 0x8c, 0x3d,
  0xf0, 0xed, 0x14, 0x3f, 0xb2, 0xce, 0x33, 0x3e, 0xb9, 0x01, 0x36, 0x3e,
  0xa8, 0x72, 0x07, 0x3e, 0xba, 0x25, 0xc3, 0x3e, 0xa4, 0xf1, 0x8c, 0x3e,
  0x7c, 0xa7, 0xfe, 0x3c, 0x6c, 0xb6, 0x62, 0xbe, 0x6d, 0x46, 0x34, 0xbd,
  0xe0, 0x05, 0x83, 0xbd, 0x20, 0x92, 0x89, 0xbe, 0x8c, 0x90, 0xf8, 0xbd,
  0x4d, 0x89, 0xdc, 0xbe, 0x28, 0x42, 0x7e, 0xbe, 0xf1, 0x8e, 0x96, 0xbe,
  0xa1, 0x86, 0x9f, 0x3c, 0x47, 0x89, 0xfe, 0x3d, 0xe6, 0x86, 0xf6, 0xbd,
  0x9d, 0x2f, 0x51, 0x3e, 0xc1, 0xd7, 0x08, 0x3e, 0x0e, 0xc8, 0x8a, 0xbd,
  0x84, 0x7a, 0x98, 0x3e, 0x5c, 0x80, 0xa7, 0x3e, 0xa1, 0xcd, 0x51, 0xbe,
  0x8e, 0x96, 0xb1, 0xbe, 0xe6, 0xf3, 0xbc, 0x3e, 0xdc, 0xb4, 0x3e, 0xbe,
  0x9f, 0x6a, 0x36, 0xbe, 0x76, 0xc1, 0x02, 0x3c, 0x77, 0x2f, 0x89, 0xbe,
  0x14, 0x94, 0xa7, 0xbe, 0x1a, 0x08, 0xe5, 0x3c, 0x2d, 0x56, 0xeb, 0x3b,
  0xf5, 0x14, 0xd6, 0x3c, 0x65, 0x96, 0xd0, 0x3d, 0x41, 0xdf, 0x36, 0x3e,
  0x90, 0x2f, 0x8b, 0x3e, 0xa1, 0xb9, 0x3c, 0x3e, 0x80, 0x2c, 0x91, 0x3e,
  0x86, 0xb8, 0x21, 0xbe, 0xcc, 0x5a, 0xdb, 0xbe, 0xc9, 0x98, 0x52, 0x3e,
  0xe9, 0xe2, 0x8d, 0xbe, 0xb7, 0xb3, 0x6b, 0xbd, 0xd9, 0x64, 0x0b, 0xbf,
  0x23, 0xf0, 0x5f, 0xbe, 0x1f, 0xa7, 0xf9, 0xbe, 0x57, 0x84, 0x83, 0xbd,
  0x23, 0x93, 0x08, 0xbf, 0x70, 0x38, 0xc9, 0xbe, 0x11, 0x7c, 0xeb, 0x3d,
  0xfa, 0x32, 0xdf, 0x3d, 0x4b, 0x94, 0xb6, 0x3e, 0x1a, 0x01, 0x2d, 0x3e,
  0xf9, 0x59, 0x71, 0x3e, 0x12, 0xe1, 0xff, 0xff, 0x10, 0x00, 0x00, 0x00,
  0x08, 0x00, 0x00, 0x00, 0x14, 0x00, 0x00, 0x00, 0x30, 0x00, 0x00, 0x00,
  0x02, 0x00, 0x00, 0x00, 0x04, 0x00, 0x00, 0x00, 0x10, 0x00, 0x00, 0x00,
  0x19, 0x00, 0x00, 0x00, 0x73, 0x65, 0x71, 0x75, 0x65, 0x6e, 0x74, 0x69,
  0x61, 0x6c, 0x2f, 0x64, 0x65, 0x6e, 0x73, 0x65, 0x5f, 0x31, 0x2f, 0x4d,
  0x61, 0x74, 0x4d, 0x75, 0x6c, 0x00, 0x00, 0x00, 0x80, 0xe0, 0xff, 0xff,
  0x8a, 0xe1, 0xff, 0xff, 0x04, 0x00, 0x00, 0x00, 0x00, 0x1c, 0x00, 0x00,
  0x66, 0x11, 0xe6, 0x3e, 0xe8, 0x92, 0x93, 0xbd, 0x41, 0x80, 0x28, 0xbe,
  0x20, 0x64, 0xa8, 0x3b, 0x27, 0xed, 0xe0, 0xbd, 0x07, 0xf2, 0x9e, 0xbd,
  0xd4, 0x40, 0xd5, 0x3c, 0x24, 0x68, 0xd9, 0x3f, 0xb1, 0x8c, 0x35, 0x3e,
  0xf8, 0x8c, 0x2e, 0xbe, 0xb8, 0x73, 0x17, 0xbd, 0xea, 0xab, 0x98, 0xbe,
  0x45, 0xc8, 0xd0, 0xbe, 0x4e, 0x5d, 0x87, 0x3d, 0xff, 0xb0, 0x46, 0xbe,
  0x1d, 0x87, 0x30, 0xbd, 0xac, 0xbc, 0xa3, 0x3f, 0x64, 0xe5, 0x8f, 0x3d,
  0xb6, 0x61, 0x83, 0xbe, 0xc2, 0x12, 0x92, 0x3e, 0x59, 0x9b, 0x94, 0x3e,
  0x9e, 0x78, 0xcc, 0x3d, 0x3c, 0x48, 0xbc, 0xbd, 0x7d, 0xb6, 0xfd, 0x3f,
  0x53, 0xbf, 0x11, 0x3e, 0x10, 0x66, 0xc9, 0xbc, 0xa1, 0x9e, 0x2d, 0xbd,
  0xb0, 0x85, 0x07, 0xbe, 0x37, 0xa4, 0xc6, 0xbc, 0x34, 0x11, 0xdf, 0x3d,
  0x2a, 0x88, 0x51, 0xbe, 0x50, 0x56, 0x30, 0x3e, 0x0c, 0x1b, 0xd2, 0x3f,
  0xef, 0x68, 0x58, 0x3e, 0xdc, 0x45, 0x12, 0xbe, 0xcc, 0x9e, 0xaa, 0x3e,
  0x4c, 0xf1, 0x1a, 0x3e, 0xe0, 0xfe, 0x1e, 0xbd, 0x41, 0x81, 0x28, 0xbe,
  0xf7, 0x79, 0x0b, 0x40, 0x1c, 0x7d, 0x46, 0x3e, 0x60, 0x23, 0x12, 0xbd,
  0xde, 0x4a, 0x09, 0xbc, 0xb4, 0x73, 0xb3, 0xbe, 0x8f, 0x54, 0xa1, 0xbd,
  0xce, 0x47, 0xa0, 0x3e, 0x0b, 0x82, 0x9e, 0xbd, 0x98, 0x26, 0x34, 0x3e,
  0x95, 0xb0, 0xc2, 0x3f, 0x25, 0x1e, 0xbe, 0x3d, 0x03, 0xc0, 0x50, 0xbe,
  0x10, 0x7d, 0x8b, 0x3e, 0x41, 0xea, 0xb6, 0x3d, 0x77, 0xc1, 0x16, 0xbc,
  0x6f, 0x51, 0x17, 0xbd, 0x2e, 0xd0, 0xff, 0x3f, 0x37, 0x3b, 0x78, 0x3e,
  0x07, 0x6f, 0x5f, 0x3d, 0x79, 0x05, 0x57, 0x3c, 0x3b, 0x8b, 0x41, 0xbe,
  0xbe, 0xe4, 0xdd, 0xbe, 0x47, 0x88, 0xc6, 0x3e, 0x83, 0xb9, 0x0b, 0x3e,
  0x99, 0x92, 0x2f, 0x3d, 0xed, 0xc2, 0x01, 0x40, 0x1c, 0x04, 0xb3, 0xbc,
  0x59, 0x97, 0x84, 0xbe, 0x79, 0xc6, 0x33, 0x3b, 0xd3, 0x3c, 0xc5, 0xbb,
  0x71, 0xe9, 0x58, 0x3d, 0xdf, 0xb9, 0x71, 0xbd, 0x5a, 0x9c, 0x00, 0x40,
  0xd2, 0xd4, 0x08, 0x3e, 0x7c, 0x58, 0xf2, 0x3a, 0xac, 0x63, 0xb5, 0x3c,
  0xde, 0x0f, 0x1e, 0xbe, 0x11, 0x43, 0x92, 0xbe, 0x1c, 0x29, 0x5f, 0x3e,
  0x01, 0x8c, 0x35, 0x3e, 0x46, 0x3d, 0x7b, 0xbd, 0x88, 0xe0, 0xcd, 0x3f,
  0x48, 0xc2, 0xaa, 0xbc, 0xc6, 0xf5, 0x59, 0xbe, 0x0b, 0xac, 0xc2, 0xbd,
  0x7d, 0xad, 0x7e, 0x3e, 0x68, 0x7c, 0x05, 0xbe, 0x2e, 0x8b, 0xfb, 0xbc,
  0x2d, 0xeb, 0xf1, 0x3f, 0x4d, 0x93, 0x86, 0x3e, 0xe2, 0x10, 0x40, 0xbc,
  0xc7, 0x7a, 0x0e, 0x3d, 0xd7, 0xa1, 0xab, 0xbe, 0x93, 0xf7, 0x2b, 0xbe,
  0xab, 0x16, 0xf0, 0x3d, 0x11, 0x56, 0x51, 0xbe, 0x43, 0x35, 0xd7, 0x3d,
  0x52, 0x0e, 0xb2, 0xbe, 0xd8, 0x67, 0x8a, 0x3c, 0xb5, 0xdb, 0x3a, 0x3d,
  0xe8, 0xff, 0x40, 0x3d, 0xe4, 0x9f, 0x42, 0x3e, 0x0a, 0xa6, 0x31, 0xbd,
  0xca, 0x34, 0x8b, 0x3d, 0xea, 0xd5, 0x9a, 0x3f, 0xd6, 0x44, 0x03, 0x3e,
  0x3d, 0x92, 0xcf, 0xbd, 0xdd, 0xf9, 0xa3, 0xbd, 0xe9, 0x58, 0xef, 0xbd,
  0xa8, 0x32, 0x78, 0xbe, 0x48, 0xa0, 0xa7, 0xbd, 0xe5, 0xc0, 0x07, 0xbd,
  0x44, 0x51, 0xe5, 0x3a, 0xc1, 0x21, 0x62, 0x3f, 0xce, 0x94, 0x39, 0xbe,
  0x71, 0x62, 0xcf, 0x3d, 0xf3, 0x74, 0xc8, 0x3d, 0xed, 0x2e, 0x39, 0xbd,
  0xfe, 0x39, 0x1f, 0xbe, 0x06, 0xb4, 0xcb, 0xbd, 0x06, 0x77, 0x3d, 0x3f,
  0x38, 0xcf, 0x89, 0x3e, 0xde, 0x8e, 0xa2, 0xbd, 0xf4, 0x52, 0xcd, 0xbe,
  0x0c, 0x4f, 0x47, 0xbe, 0x41, 0x2e, 0xf6, 0xbd, 0x5c, 0xaf, 0x00, 0x3e,
  0xe1, 0xf0, 0x5f, 0xbe, 0x5e, 0xa7, 0x52, 0xbe, 0x5f, 0x29, 0x06, 0x3f,
  0x52, 0x76, 0x09, 0x3e, 0x94, 0x47, 0xe7, 0x3a, 0x59, 0x4c, 0x64, 0xbe,
  0xbf, 0xc2, 0x08, 0xbe, 0x70, 0x16, 0x41, 0xbe, 0x0c, 0xd2, 0x0e, 0x3d,
  0xe8, 0x62, 0x4a, 0x3f, 0x9e, 0xa9, 0x6d, 0x3c, 0x28, 0xb8, 0x19, 0x3c,
  0x46, 0x77, 0xe5, 0xbe, 0xca, 0xf3, 0x3c, 0xbe, 0xa4, 0x47, 0x7d, 0x3d,
  0x67, 0xbd, 0x3f, 0xbe, 0x48, 0xcb, 0x29, 0xbe, 0x32, 0x9c, 0xf6, 0xbd,
  0x0e, 0xb5, 0x16, 0x3f, 0x38, 0x5d, 0xd4, 0x3d, 0x43, 0x5d, 0x3e, 0xbd,
  0xd6, 0x8f, 0xcf, 0xba, 0x38, 0x00, 0xb9, 0x3d, 0xcf, 0x33, 0x27, 0xbe,
  0x62, 0xfb, 0xe0, 0x3d, 0xc6, 0x3e, 0x56, 0x3f, 0xe4, 0x5b, 0x00, 0x3e,
  0x0a, 0xd7, 0xec, 0xbd, 0x70, 0xcc, 0x56, 0xbe, 0xd6, 0xb1, 0x17, 0x3e,
  0x49, 0x25, 0x22, 0x3e, 0x64, 0xc0, 0x7a, 0xbc, 0xf7, 0xe7, 0x73, 0xbc,
  0x23, 0xbf, 0x76, 0x3d, 0x51, 0xb9, 0x3a, 0x3f, 0x44, 0x6c, 0x20, 0xbe,
  0x00, 0xbd, 0xa3, 0xbd, 0xd1, 0xda, 0xd3, 0xbd, 0x27, 0xca, 0x6c, 0x3d,
  0xee, 0x11, 0x1c, 0x3e, 0x31, 0xec, 0x33, 0xbe, 0xaa, 0x25, 0xe7, 0x3e,
  0x5e, 0x53, 0x18, 0x3e, 0xfb, 0x85, 0xd1, 0x3d, 0xd9, 0x54, 0xbe, 0xbe,
  0xbf, 0x43, 0x2e, 0x3d, 0x41, 0xb6, 0xd5, 0xbd, 0xef, 0x98, 0x94, 0x3d,
  0x86, 0x9c, 0x7e, 0xbd, 0x3e, 0x48, 0xc9, 0xbd, 0x29, 0x0e, 0x01, 0x3f,
  0x01, 0x80, 0xfc, 0x3d, 0xf0, 0xd6, 0x14, 0xbd, 0x8d, 0xb2, 0xe2, 0x3c,
  0x12, 0x1c, 0xb0, 0x3a, 0xcc, 0x5b, 0xd8, 0x3b, 0x00, 0x73, 0xf6, 0x3c,
  0x95, 0x8d, 0x29, 0x3f, 0xa3, 0x12, 0xe4, 0xbc, 0x7d, 0xcf, 0x22, 0xbd,
  0x0a, 0x46, 0x50, 0xbe, 0x8b, 0xa4, 0x61, 0x3d, 0xf4, 0x75, 0xe5, 0x3b,
  0x5d, 0x4e, 0x70, 0xbd, 0x59, 0x1b, 0x87, 0x3d, 0x0e, 0xfd, 0xdd, 0xbd,
  0xf5, 0x6e, 0x21, 0x3f, 0xa6, 0x26, 0xdd, 0xbc, 0x22, 0x30, 0x30, 0xbd,
  0x37, 0x7c, 0xc9, 0xbd, 0xa3, 0xb6, 0x36, 0xbd, 0xfb, 0xd4, 0x20, 0x3d,
  0x9c, 0xa5, 0x82, 0xbe, 0x13, 0xac, 0x3a, 0x3f, 0xdd, 0x1b, 0x59, 0xbe,
  0x13, 0x63, 0x0d, 0xbe, 0xb4, 0x24, 0x7a, 0xbe, 0x6f, 0xc2, 0x65, 0xbd,
  0xc7, 0x93, 0xca, 0xbd, 0xff, 0x2f, 0xb5, 0xbe, 0xc8, 0xd4, 0x83, 0x3d,
  0x83, 0x6e, 0xa2, 0x3b, 0x2c, 0x50, 0x2f, 0x3f, 0x42, 0x07, 0x95, 0xbd,
  0x35, 0xde, 0x3f, 0xbe, 0x0f, 0xfd, 0x64, 0xbe, 0x89, 0x1e, 0x75, 0x3a,
  0xc9, 0x2c, 0x7c, 0x3d, 0x61, 0xe3, 0x4e, 0xbe, 0x99, 0xb9, 0xdb, 0x3e,
  0xc5, 0x2c, 0x21, 0xbd, 0x1d, 0x55, 0x3a, 0x3c, 0x37, 0xca, 0x3a, 0xbe,
  0x94, 0xed, 0xdf, 0xbc, 0x09, 0xb4, 0x97, 0x3d, 0x17, 0x0d, 0x69, 0xbe,
  0x5f, 0x33, 0x51, 0x3d, 0xd7, 0x0d, 0x76, 0x3d, 0x91, 0x8e, 0x21, 0xbe,
  0xc2, 0xd1, 0x14, 0x3d, 0xc7, 0x31, 0xfe, 0xbd, 0x0e, 0xe8, 0x93, 0xbd,
  0x52, 0x9d, 0x10, 0x3d, 0x5c, 0xc0, 0x9a, 0xbd, 0xe7, 0x59, 0xe6, 0x3c,
  0x6a, 0xd8, 0x4e, 0xbe, 0xcb, 0x30, 0x3b, 0xbd, 0x54, 0xcd, 0xf6, 0xbd,
  0x56, 0x00, 0x98, 0xbe, 0xb9, 0xdf, 0x73, 0xbe, 0x43, 0x99, 0x17, 0x3d,
  0x83, 0x78, 0xdc, 0x3b, 0xe1, 0x7c, 0x90, 0xbd, 0xa9, 0x28, 0x48, 0xbb,
  0x7f, 0x82, 0x16, 0xbe, 0xb9, 0x8c, 0xa3, 0xbd, 0x1c, 0xa5, 0x87, 0x3d,
  0x57, 0x59, 0xe1, 0x3d, 0xe6, 0xd8, 0x4b, 0xbc, 0xe9, 0x93, 0x1e, 0x3e,
  0x9f, 0x4b, 0xf5, 0xbd, 0x3a, 0x4f, 0x1e, 0x3e, 0x8f, 0x0c, 0x8e, 0xbd,
  0xf3, 0x23, 0xeb, 0xbd, 0x89, 0x9c, 0xe0, 0xbe, 0xa6, 0xe8, 0xad, 0x3b,
  0xbf, 0x0f, 0x10, 0xbc, 0x2d, 0xfa, 0xe6, 0xbd, 0x3a, 0x42, 0x0c, 0xbe,
  0xaf, 0x44, 0x3a, 0x3b, 0xec, 0xbf, 0x38, 0xbe, 0x52, 0x28, 0x62, 0xbe,
  0x02, 0x15, 0x0f, 0xbd, 0x77, 0x4b, 0x35, 0xbe, 0xf6, 0xba, 0x2e, 0xbe,
  0xd6, 0x78, 0x52, 0xbe, 0x5b, 0x93, 0x9c, 0x3c, 0x63, 0x03, 0xb4, 0x3d,
  0x14, 0x43, 0x0f, 0x3e, 0x98, 0xcb, 0xde, 0x3c, 0x34, 0x75, 0xfe, 0xbd,
  0x76, 0xf4, 0x97, 0xbb, 0x82, 0xcd, 0x48, 0x3d, 0x3d, 0xb7, 0xc4, 0xbd,
  0xb8, 0x28, 0xec, 0x3d, 0x7a, 0x94, 0x0f, 0xbe, 0x4f, 0x69, 0x39, 0xbd,
  0x55, 0xbd, 0x45, 0xbe, 0x57, 0xe8, 0x67, 0xbd, 0x68, 0x2f, 0x0c, 0x3e,
  0xa3, 0x4b, 0x73, 0xbd, 0xb0, 0xda, 0x1c, 0x3e, 0xa0, 0x27, 0x2c, 0xbe,
  0x34, 0xfe, 0xbc, 0xbd, 0x87, 0xe6, 0xb5, 0xbd, 0x6d, 0xb7, 0x7c, 0x3b,
  0xe1, 0xd0, 0x94, 0xbe, 0x2b, 0x4b, 0x12, 0xbd, 0x8e, 0xa4, 0x08, 0x3c,
  0xd9, 0x99, 0x00, 0xbe, 0x7d, 0xd2, 0x19, 0xbc, 0xa6, 0xe4, 0x54, 0x3d,
  0xe3, 0x61, 0x44, 0xbe, 0x82, 0x9a, 0xfd, 0x3c, 0x5d, 0x6a, 0xc4, 0xbd,
  0x00, 0x93, 0x1f, 0xbe, 0x25, 0x6c, 0x5c, 0x3c, 0xca, 0x98, 0x64, 0xbc,
  0x33, 0x90, 0x31, 0xbd, 0x15, 0xcd, 0xa7, 0x3d, 0xc8, 0xae, 0xc2, 0x3d,
  0x1f, 0xb0, 0xa4, 0x3d, 0x07, 0xba, 0xbe, 0xbe, 0xee, 0xda, 0xa7, 0x3c,
  0x2a, 0xfc, 0x91, 0x3d, 0x16, 0x4c, 0x5d, 0xbe, 0x46, 0x6a, 0xe9, 0xbd,
  0xd2, 0xb5, 0x90, 0xbd, 0x05, 0xd9, 0x26, 0xbe, 0x3f, 0xa9, 0x8f, 0xbe,
  0x7e, 0x03, 0xa2, 0xbd, 0x70, 0x5a, 0x91, 0xbd, 0xcb, 0x82, 0x72, 0xbd,
  0x70, 0xd9, 0x4a, 0xbe, 0xaa, 0x69, 0x4e, 0xbd, 0xf9, 0x99, 0x19, 0xbe,
  0xa0, 0xb1, 0x65, 0xbd, 0xfc, 0xbc, 0x0c, 0xbe, 0xb9, 0x75, 0x38, 0xbe,
  0x8e, 0x17, 0x13, 0xbe, 0xa0, 0x0d, 0x1f, 0xbc, 0x3e, 0x66, 0x17, 0xbe,
  0x98, 0x57, 0x13, 0x3e, 0x41, 0x36, 0xd8, 0xbc, 0x4c, 0xc9, 0x65, 0xbe,
  0x93, 0x74, 0x89, 0x3c, 0x2d, 0x8c, 0xe1, 0xbc, 0xd5, 0x65, 0x34, 0xbe,
  0x6a, 0xbe, 0x0c, 0xbc, 0xd4, 0x53, 0x32, 0xbe, 0xc8, 0x2e, 0x08, 0x3d,
  0x18, 0x25, 0xea, 0x39, 0xb9, 0x96, 0x05, 0x3c, 0x09, 0xde, 0x1a, 0xbd,
  0xd7, 0x1f, 0x6a, 0xbe, 0x60, 0xf6, 0xd8, 0x3d, 0x2b, 0x95, 0x39, 0x3d,
  0xf0, 0x05, 0xb9, 0xbd, 0xcb, 0xe9, 0x41, 0xbe, 0x5a, 0xa1, 0x14, 0xbd,
  0x81, 0x5f, 0x18, 0x3e, 0xbd, 0xe3, 0xb3, 0xbe, 0x3c, 0x3e, 0x2a, 0xbd,
  0xd0, 0x4a, 0x3d, 0xbe, 0xc2, 0xdd, 0x1f, 0x3d, 0x91, 0x5d, 0x55, 0xbe,
  0xe3, 0x7e, 0x5a, 0xbd, 0xc4, 0x95, 0x89, 0x3f, 0xb9, 0xf3, 0x1e, 0x3e,
  0x28, 0x17, 0x7f, 0x3d, 0x6c, 0x2a, 0x38, 0x3d, 0xd3, 0x08, 0x3c, 0xbe,
  0x5e, 0x67, 0x12, 0x3e, 0x1e, 0xf8, 0x9d, 0xbc, 0xd1, 0x7f, 0x80, 0xbe,
  0xb2, 0xcc, 0x1d, 0x3b, 0x9b, 0x87, 0xc5, 0x3e, 0x68, 0xd3, 0x33, 0xbe,
  0x97, 0xe9, 0x8f, 0x3d, 0xfb, 0xd4, 0x88, 0xbe, 0x10, 0x77, 0x80, 0x3e,
  0x07, 0x9b, 0x92, 0xbe, 0x06, 0xae, 0xbd, 0xbd, 0xe0, 0x6b, 0x8a, 0x3f,
  0xc7, 0xd3, 0xc8, 0xbd, 0xf9, 0x34, 0x29, 0x3e, 0x6e, 0x3c, 0xf1, 0x3b,
  0x0a, 0xff, 0x85, 0xbe, 0x9e, 0xfa, 0xe2, 0x3a, 0x57, 0xa6, 0x7d, 0xbe,
  0xc7, 0x25, 0xbb, 0xbd, 0x60, 0xe3, 0x4d, 0x3e, 0x96, 0x55, 0x98, 0x3f,
  0xf2, 0x43, 0xd9, 0x3c, 0x5c, 0xe6, 0xc8, 0x3d, 0xf8, 0x27, 0xab, 0xbd,
  0x68, 0x14, 0x89, 0x3e, 0x9d, 0xfb, 0x6c, 0xbe, 0xb8, 0x1e, 0x96, 0x3d,
  0x94, 0xe0, 0x8b, 0x3f, 0x04, 0x60, 0x86, 0xbd, 0xac, 0x31, 0xe1, 0x3d,
  0x2c, 0xb4, 0x16, 0x3d, 0x2b, 0x8c, 0x16, 0xbe, 0x89, 0xef, 0x04, 0x3e,
  0x14, 0xed, 0x6e, 0xbd, 0x7d, 0xbb, 0x25, 0x3e, 0x8e, 0x6a, 0xd5, 0x3e,
  0x68, 0x46, 0x8a, 0x3f, 0xf9, 0xa1, 0xf8, 0xbd, 0xc6, 0x1f, 0x09, 0x3e,
  0x52, 0xbc, 0x9a, 0xbd, 0x02, 0xc4, 0x17, 0x3e, 0x41, 0xa3, 0x07, 0xbe,
  0x09, 0xd3, 0x1f, 0x3e, 0xd5, 0xaa, 0x92, 0x3f, 0xec, 0x38, 0xb4, 0x3d,
  0xef, 0xdc, 0xf5, 0x3d, 0xa6, 0x6e, 0x92, 0x3b, 0x57, 0xfa, 0x97, 0xbd,
  0xda, 0x03, 0x1e, 0xbe, 0x97, 0x90, 0x01, 0x3d, 0x62, 0x0e, 0x49, 0x3d,
  0x4e, 0xbc, 0xa9, 0x3e, 0xca, 0xfb, 0x87, 0x3f, 0x25, 0x8e, 0x22, 0xbe,
  0x8b, 0xe0, 0xe1, 0x3d, 0x7b, 0xdf, 0xf7, 0xbd, 0x49, 0xb8, 0xd7, 0x3c,
  0x33, 0xf0, 0x51, 0xbd, 0x25, 0xe1, 0x03, 0x3e, 0x51, 0x88, 0x9e, 0x3f,
  0xca, 0x77, 0x93, 0xbc, 0x60, 0xb3, 0xb0, 0x3d, 0x4b, 0xe8, 0x29, 0x3b,
  0x90, 0xf6, 0x22, 0xbe, 0x8d, 0x67, 0x90, 0xbe, 0xab, 0x77, 0x77, 0xbd,
  0xbf, 0x1c, 0x73, 0xbd, 0x9a, 0x41, 0x62, 0x3e, 0xef, 0x7f, 0x66, 0x3f,
  0x6f, 0xa3, 0x65, 0xbe, 0xdc, 0x80, 0x81, 0x3d, 0x45, 0xdb, 0x82, 0xbe,
  0x31, 0x8b, 0x2e, 0x3e, 0x0e, 0x0b, 0x53, 0xbe, 0x1c, 0x7c, 0x04, 0x3e,
  0x04, 0xe9, 0xa7, 0x3f, 0x19, 0x50, 0xbb, 0xbc, 0xe5, 0x86, 0x57, 0x3d,
  0x90, 0x6a, 0x54, 0x3d, 0x1f, 0xb0, 0x84, 0xbe, 0xdd, 0xaf, 0xb1, 0xbe,
  0x4e, 0x1e, 0xba, 0xbb, 0x50, 0x40, 0x21, 0xbe, 0xa3, 0xc4, 0x5d, 0x3d,
  0x1c, 0x7b, 0xd4, 0xbd, 0x17, 0xf3, 0xbe, 0xbd, 0x54, 0x8a, 0x91, 0xbc,
  0x58, 0xf0, 0xe5, 0xbd, 0xbc, 0x26, 0x59, 0x3d, 0x19, 0xf6, 0x15, 0xbd,
  0xb4, 0xb4, 0x07, 0xbd, 0x15, 0xeb, 0x66, 0x3f, 0x05, 0x8c, 0x44, 0x3d,
  0xb4, 0x9b, 0x08, 0x3e, 0x57, 0x03, 0x0c, 0x3c, 0x66, 0x15, 0xe6, 0xbd,
  0x16, 0x02, 0x82, 0xbe, 0xf6, 0x3c, 0x78, 0x3c, 0x0d, 0x64, 0xbd, 0xbd,
  0xd8, 0xc8, 0x4a, 0xbc, 0x55, 0xbb, 0x12, 0x3e, 0x87, 0x95, 0xac, 0x3d,
  0x82, 0x49, 0x92, 0xbe, 0x4e, 0xb1, 0x9b, 0xbd, 0xf3, 0x5c, 0xbd, 0xbd,
  0xe8, 0x58, 0xb5, 0x3d, 0x7b, 0xbd, 0x5e, 0xbe, 0x0a, 0xf7, 0xf0, 0xbc,
  0xa1, 0x39, 0x91, 0x3b, 0x8d, 0xcd, 0xd0, 0x3d, 0x85, 0xc8, 0x6a, 0xbd,
  0xd3, 0x18, 0xb5, 0xbd, 0xcf, 0x5f, 0xa9, 0xbd, 0x5a, 0x70, 0x89, 0xbe,
  0xf2, 0x26, 0x87, 0x3b, 0xe6, 0x11, 0xa8, 0xbd, 0x9e, 0x70, 0x43, 0xbe,
  0x2a, 0xcf, 0x84, 0xbe, 0x58, 0xda, 0x6e, 0xbe, 0x69, 0x02, 0x2c, 0xbd,
  0xe1, 0xb7, 0x5e, 0xbe, 0x53, 0x2c, 0x67, 0xbd, 0x7a, 0xcc, 0xde, 0xbe,
  0x9e, 0xc4, 0x5b, 0xbd, 0x93, 0x9c, 0x99, 0xbe, 0x1e, 0x96, 0x32, 0x3e,
  0x11, 0x59, 0x0e, 0xbe, 0x70, 0x84, 0x0d, 0xbe, 0xd0, 0x65, 0x08, 0x3e,
  0x37, 0xc0, 0x90, 0xbd, 0x08, 0x08, 0x0b, 0x3d, 0x41, 0xfa, 0xfa, 0x3d,
  0xfd, 0x45, 0x85, 0x3c, 0x7f, 0x82, 0x84, 0xbe, 0x1c, 0x98, 0x21, 0x3d,
  0xc2, 0xfc, 0xee, 0xbd, 0xc7, 0x52, 0xa0, 0xbd, 0xc4, 0x2b, 0x1f, 0xbe,
  0xd5, 0xa3, 0x2a, 0xbe, 0xa0, 0xd4, 0xca, 0x3c, 0xf2, 0x74, 0x89, 0x3c,
  0x69, 0x14, 0x97, 0x3a, 0xb5, 0xf4, 0x45, 0xbe, 0x9c, 0x3c, 0xe2, 0x3d,
  0x47, 0x76, 0xc1, 0xbd, 0x73, 0x16, 0x36, 0xbe, 0x8b, 0x47, 0x13, 0xbe,
  0x82, 0xc1, 0x41, 0x3e, 0x2b, 0xc1, 0x52, 0xbe, 0x57, 0xbf, 0xae, 0xbe,
  0xcb, 0x0d, 0x08, 0xbd, 0x19, 0xbc, 0x13, 0x3b, 0xf7, 0x42, 0xef, 0xbd,
  0x5d, 0x74, 0x98, 0x3c, 0x28, 0x64, 0x65, 0xbd, 0xbe, 0x9b, 0xce, 0xbd,
  0x34, 0x40, 0x2c, 0x3e, 0x71, 0xb9, 0x90, 0x3d, 0xb5, 0xd2, 0xed, 0xbd,
  0x15, 0xa8, 0xfc, 0xbd, 0xab, 0x7e, 0x5c, 0x3e, 0x25, 0xe6, 0x51, 0x3e,
  0x8a, 0x5d, 0x8a, 0xbe, 0x25, 0xb9, 0x29, 0x3d, 0xed, 0xd9, 0x07, 0xbe,
  0xa5, 0x0e, 0xdd, 0xbd, 0x79, 0x3a, 0xed, 0xbd, 0x4d, 0x1a, 0x05, 0xbe,
  0xc1, 0xe0, 0x0c, 0x3e, 0x49, 0x0a, 0x05, 0xbe, 0x0b, 0x82, 0xbb, 0xbd,
  0x00, 0x31, 0xd4, 0xbc, 0xf3, 0x80, 0x79, 0x3e, 0xc3, 0xb5, 0x26, 0xbe,
  0xab, 0xc0, 0x6d, 0xbd, 0xf2, 0xb3, 0x08, 0xbe, 0x2f, 0x3d, 0xf3, 0x3c,
  0xe6, 0x82, 0x99, 0x3d, 0x33, 0xd1, 0x76, 0xbc, 0xa8, 0xb7, 0xd5, 0x3d,
  0xe7, 0xc8, 0x62, 0xbe, 0xdc, 0x02, 0xa8, 0xbe, 0x38, 0xd3, 0xca, 0xbd,
  0x99, 0x34, 0xba, 0xbd, 0x73, 0x96, 0x25, 0x3e, 0xe6, 0xe7, 0xd2, 0xbe,
  0xbe, 0x08, 0x61, 0xbe, 0xa1, 0xc5, 0x3b, 0x3d, 0x85, 0x4d, 0x2c, 0x3e,
  0x3a, 0xeb, 0x1c, 0xbd, 0x63, 0x6a, 0x1c, 0xbe, 0x0e, 0x28, 0x3d, 0xbe,
  0xfa, 0x65, 0x5f, 0x3b, 0xf0, 0x08, 0x3e, 0xbe, 0x88, 0x96, 0x51, 0xbe,
  0x99, 0xf3, 0xf2, 0x3d, 0x6a, 0xe8, 0xef, 0x3d, 0xf2, 0x96, 0xac, 0xbe,
  0x7f, 0x8e, 0x0c, 0xbe, 0x7d, 0xab, 0xe5, 0xbd, 0x7a, 0xe9, 0x45, 0x3d,
  0x69, 0x75, 0x26, 0xbe, 0xf0, 0x0e, 0x0c, 0xbe, 0x2f, 0xac, 0xfc, 0xbc,
  0x87, 0x7c, 0xae, 0x3b, 0xc5, 0x70, 0x37, 0xbe, 0xad, 0xa3, 0xa7, 0xbd,
  0x78, 0x85, 0x22, 0xbe, 0x44, 0x01, 0x8d, 0xbd, 0x3c, 0x39, 0xb7, 0x3d,
  0x3e, 0x49, 0xbd, 0xbe, 0x91, 0x97, 0x31, 0x3e, 0x81, 0xbd, 0x58, 0x3e,
  0x21, 0x56, 0x4d, 0xbb, 0x3a, 0xe4, 0x68, 0xbe, 0xdf, 0x53, 0x44, 0xbe,
  0x33, 0x8c, 0x9e, 0xbd, 0x68, 0xd3, 0xb6, 0xbd, 0x2a, 0x2b, 0x60, 0xbe,
  0xdc, 0xd2, 0x54, 0xbe, 0x7c, 0xcc, 0x90, 0x3d, 0x05, 0x96, 0x4d, 0xbe,
  0x23, 0x1b, 0x97, 0xbe, 0xd4, 0x43, 0x99, 0xbd, 0x16, 0x37, 0x01, 0x3e,
  0x94, 0x60, 0x37, 0x3d, 0x6c, 0xa3, 0x5c, 0xbe, 0xd9, 0x24, 0xb8, 0xbc,
  0xe7, 0x73, 0xf4, 0x3c, 0x60, 0xfd, 0x38, 0xbe, 0x5b, 0x4e, 0x6d, 0xbe,
  0x72, 0x87, 0x1f, 0xbd, 0x71, 0x45, 0x7b, 0xbe, 0x72, 0xee, 0xb0, 0xbd,
  0x49, 0xf0, 0x9d, 0xbe, 0x83, 0xf4, 0xcb, 0x3d, 0x0d, 0x9c, 0x83, 0xbc,
  0x20, 0xa0, 0xe8, 0x3c, 0x04, 0x76, 0xba, 0xbe, 0x35, 0x34, 0x51, 0x3c,
  0xf8, 0x57, 0x51, 0xbd, 0x9c, 0x5d, 0x5d, 0xbd, 0x2b, 0x3c, 0x1c, 0x3e,
  0x7f, 0x79, 0x8c, 0xbd, 0x36, 0x5d, 0x0c, 0x3e, 0x3f, 0x7d, 0x8a, 0x3d,
  0x7a, 0x51, 0xb8, 0xbb, 0x17, 0xaf, 0xd8, 0xbd, 0x96, 0xcb, 0x19, 0xbe,
  0x66, 0x5a, 0xd6, 0xbd, 0x9b, 0xde, 0x05, 0xbe, 0xf1, 0x59, 0xc4, 0xbd,
  0x13, 0x54, 0x0f, 0x3e, 0xb2, 0xf2, 0xc4, 0xbc, 0xbf, 0x9b, 0xc6, 0xbe,
  0x73, 0x5a, 0xf6, 0xbd, 0xff, 0x41, 0xb3, 0x3d, 0x75, 0xd3, 0x6b, 0xbe,
  0x6d, 0xb6, 0x09, 0xbe, 0x84, 0x49, 0x30, 0x3e, 0x43, 0x05, 0x19, 0xbe,
  0xda, 0xf5, 0xb3, 0x3d, 0xad, 0xe1, 0xf1, 0x3c, 0x05, 0x9a, 0xc9, 0xbd,
  0x5f, 0xaa, 0x31, 0x3e, 0xcb, 0x08, 0xe4, 0xbd, 0xe7, 0x96, 0xe2, 0x3c,
  0x76, 0x9c, 0x96, 0xbd, 0x4e, 0xb5, 0xfb, 0xbc, 0xf3, 0xef, 0xfa, 0x3c,
  0xcf, 0x1a, 0xcd, 0xbe, 0x22, 0xf5, 0xf6, 0xbd, 0xa1, 0xf7, 0x6c, 0xbe,
  0x7b, 0x88, 0xaa, 0xbd, 0x9a, 0x27, 0x13, 0x3e, 0xb4, 0x04, 0xb8, 0x3d,
  0x18, 0xa4, 0x05, 0xbd, 0x3c, 0xef, 0x52, 0x3d, 0x6d, 0xe9, 0xac, 0xbe,
  0x23, 0xa7, 0x49, 0xbe, 0x07, 0x15, 0x4d, 0xbe, 0x99, 0x12, 0x97, 0x3d,
  0xed, 0xb3, 0x89, 0xbd, 0x7f, 0x07, 0x6a, 0xbe, 0x66, 0x5f, 0x5d, 0x3e,
  0x4d, 0xc0, 0x03, 0x3d, 0x79, 0x5e, 0x7f, 0xbe, 0xcd, 0xc9, 0xdb, 0xbd,
  0x01, 0xa5, 0x55, 0xbe, 0x53, 0x46, 0xaf, 0x3d, 0xe4, 0xe8, 0x1a, 0x3d,
  0x72, 0xf3, 0x59, 0xbe, 0x8d, 0xbf, 0xf3, 0x3d, 0x09, 0x0e, 0x52, 0xbd,
  0x52, 0x71, 0x7b, 0xbe, 0xa1, 0x45, 0x28, 0xbe, 0xe5, 0x53, 0x43, 0xbe,
  0xb1, 0x92, 0xac, 0x3c, 0x63, 0x0a, 0x1d, 0xbe, 0x80, 0x25, 0xb3, 0x3d,
  0xfe, 0xaa, 0x09, 0x3e, 0x6d, 0xd0, 0xcc, 0xbc, 0xa5, 0xc7, 0x33, 0xbd,
  0x82, 0x0a, 0x59, 0x3d, 0xd7, 0x0b, 0x16, 0xbe, 0xc7, 0xa5, 0x20, 0x3d,
  0x88, 0xea, 0x12, 0x3e, 0x6c, 0xdc, 0xa1, 0xbc, 0x78, 0xf9, 0x1e, 0x3e,
  0xf6, 0xcc, 0x10, 0x3e, 0x82, 0x18, 0x83, 0xbe, 0x9f, 0xb2, 0x69, 0xbe,
  0x18, 0x57, 0x5f, 0xbd, 0xd2, 0xff, 0x65, 0xbe, 0x2e, 0x0f, 0x04, 0xbe,
  0x71, 0x96, 0x67, 0xbd, 0xa1, 0x2f, 0x82, 0xbe, 0x10, 0x79, 0x89, 0xbd,
  0x41, 0x4c, 0xe8, 0xbd, 0x34, 0xc2, 0x0f, 0xbd, 0x6c, 0xe1, 0x46, 0xbe,
  0x6c, 0x57, 0x51, 0xbe, 0xe2, 0x6d, 0xa4, 0xbd, 0x12, 0xbb, 0x14, 0xbd,
  0xc1, 0x96, 0xf0, 0x3d, 0x39, 0x10, 0x9e, 0xbd, 0x61, 0xf7, 0x58, 0xbd,
  0xb8, 0x2d, 0x8e, 0xbd, 0x3a, 0xc9, 0x8d, 0xbe, 0x00, 0xf6, 0xdc, 0xbd,
  0x3c, 0x00, 0xdd, 0x3d, 0xdd, 0xe5, 0x33, 0xbe, 0x51, 0x6a, 0xc7, 0xbd,
  0x55, 0x55, 0x02, 0xbf, 0xe8, 0x08, 0x37, 0xbe, 0xb7, 0xe5, 0xdd, 0x3c,
  0x2f, 0x21, 0x17, 0xbe, 0xe7, 0xc0, 0x82, 0xbe, 0x98, 0xd2, 0x9a, 0xbc,
  0x33, 0x8c, 0x00, 0xbe, 0x89, 0xbd, 0x73, 0x3b, 0xa7, 0x0e, 0x19, 0x3e,
  0x88, 0xb5, 0x5f, 0xbe, 0x64, 0x5a, 0x55, 0x3e, 0x55, 0x39, 0xd3, 0xbc,
  0x6e, 0x2c, 0x22, 0x3e, 0x51, 0xde, 0x7a, 0xbd, 0xc0, 0xa3, 0x23, 0x3e,
  0x4e, 0x22, 0x41, 0xbe, 0x8b, 0x0a, 0xe6, 0xbe, 0x17, 0xd2, 0x45, 0xbe,
  0x5d, 0x33, 0x7b, 0x3d, 0x2e, 0x09, 0x1d, 0xbe, 0x2f, 0x6a, 0x07, 0x3e,
  0x42, 0x15, 0x25, 0x3d, 0x33, 0x87, 0xb6, 0xbe, 0xa6, 0xe4, 0xc4, 0x3d,
  0x07, 0x0b, 0x99, 0x3d, 0x07, 0x2e, 0x61, 0xbe, 0x70, 0x75, 0x7f, 0x3e,
  0x83, 0xb7, 0x62, 0x3e, 0x0b, 0xe0, 0x02, 0x3e, 0xf8, 0x4e, 0x75, 0xbe,
  0xdc, 0xee, 0x82, 0x3c, 0xe6, 0x56, 0x89, 0x3e, 0xe3, 0x55, 0x20, 0xbe,
  0x7b, 0xad, 0x6c, 0xbd, 0x24, 0x81, 0x8e, 0x3e, 0x87, 0xc5, 0x41, 0xbd,
  0xd1, 0xd7, 0x6b, 0x3e, 0x13, 0xc7, 0x10, 0xbd, 0x5f, 0x68, 0xbc, 0xbe,
  0x84, 0xd7, 0xf3, 0x3d, 0x55, 0xf6, 0x08, 0x3e, 0xe1, 0xe1, 0x6a, 0xbe,
  0x04, 0x41, 0x4b, 0x3e, 0xb3, 0x7d, 0x32, 0x3e, 0x77, 0x7c, 0x0c, 0x3d,
  0xcc, 0xe1, 0x83, 0xbe, 0xae, 0xef, 0x20, 0xbd, 0x34, 0xe6, 0x9e, 0x3e,
  0xe0, 0xe0, 0xe3, 0xbd, 0x8e, 0x02, 0x9a, 0xbb, 0x59, 0x6f, 0xa1, 0x3d,
  0xe8, 0x83, 0xf7, 0xbd, 0xb4, 0xd4, 0x31, 0x3e, 0x71, 0xad, 0x85, 0x3e,
  0xb0, 0xa8, 0x65, 0xbe, 0xeb, 0xdf, 0xac, 0x3b, 0xed, 0x2d, 0x0e, 0x3e,
  0x31, 0x09, 0xda, 0xbd, 0x8b, 0xb6, 0x79, 0x3e, 0x42, 0x36, 0xcb, 0x3d,
  0xda, 0x8e, 0x97, 0xba, 0x03, 0xb3, 0xaf, 0xbd, 0xbc, 0xa4, 0xc1, 0xbc,
  0xb1, 0x55, 0x5d, 0x3e, 0x32, 0x63, 0x11, 0xbe, 0x4e, 0xa0, 0x4d, 0xbd,
  0x63, 0xa5, 0x94, 0xbd, 0xa0, 0xe4, 0x74, 0xbe, 0x78, 0x1b, 0xd9, 0x3d,
  0x51, 0xa3, 0x90, 0x3e, 0x1d, 0x19, 0xad, 0xbe, 0x42, 0x26, 0x00, 0x3e,
  0x67, 0x6d, 0x31, 0x3e, 0x3b, 0x56, 0xc3, 0xbd, 0x1a, 0x9a, 0x4a, 0x3e,
  0xea, 0x74, 0xbd, 0x3d, 0xd3, 0xe1, 0x2b, 0xbd, 0x73, 0x87, 0xbd, 0x3d,
  0xa1, 0x36, 0x46, 0x3d, 0xf8, 0xaf, 0x43, 0x3e, 0xba, 0xa3, 0x9a, 0xbe,
  0x00, 0x5d, 0x04, 0xbb, 0x1b, 0x50, 0x9a, 0xbd, 0xff, 0x0c, 0x8f, 0xbd,
  0xbc, 0x98, 0xc9, 0xbb, 0xce, 0x56, 0xc5, 0x3d, 0x43, 0x53, 0xb0, 0xbe,
  0x03, 0xef, 0x6d, 0x3c, 0xc4, 0xa7, 0xa3, 0x3d, 0x93, 0xc2, 0x14, 0xbe,
  0x2a, 0xbc, 0xe9, 0x3d, 0xe6, 0xd3, 0x07, 0xbe, 0xf4, 0xb6, 0xe5, 0x3d,
  0xf0, 0x2d, 0xcb, 0x3c, 0xd4, 0xb5, 0x1a, 0xbe, 0xed, 0x90, 0xa5, 0xbe,
  0xbb, 0xf4, 0x18, 0xbe, 0xf1, 0x1b, 0xff, 0xbd, 0xa8, 0xfe, 0xed, 0xbd,
  0x6e, 0x52, 0x99, 0x3d, 0xa9, 0x62, 0x9d, 0xbe, 0xd9, 0x54, 0x17, 0x3e,
  0x45, 0xd5, 0xc7, 0x3d, 0xd4, 0xbb, 0x65, 0x3e, 0x4d, 0xda, 0x23, 0x3e,
  0x5c, 0xdb, 0xf7, 0x3d, 0xe1, 0x64, 0xc1, 0x3d, 0x00, 0xbc, 0x14, 0x3d,
  0xa8, 0xc2, 0x0b, 0xbd, 0x81, 0x4f, 0xf0, 0x3d, 0xc9, 0x2a, 0x80, 0xbe,
  0x4d, 0x97, 0x4b, 0xbd, 0x92, 0x20, 0xba, 0x3d, 0x3d, 0x26, 0x0b, 0x3d,
  0x48, 0xa8, 0x7b, 0x3e, 0xda, 0x74, 0x4e, 0x3d, 0x62, 0x62, 0x5d, 0xbc,
  0xd0, 0x13, 0xd2, 0x3e, 0x5f, 0x8d, 0xfb, 0x3d, 0x34, 0x40, 0x6d, 0x3e,
  0xe7, 0xe4, 0x6d, 0x3d, 0x9f, 0x40, 0x2e, 0xbd, 0xa6, 0xa4, 0x99, 0xbe,
  0xc8, 0xe0, 0xa4, 0xbd, 0x8e, 0xff, 0x61, 0xbe, 0x02, 0x41, 0xd0, 0x3d,
  0x85, 0xba, 0x91, 0xbe, 0xde, 0x0e, 0xc9, 0xbd, 0x33, 0xaf, 0x7a, 0xbd,
  0x5f, 0x82, 0x2d, 0x3c, 0xac, 0xbe, 0x6f, 0xbd, 0x0d, 0x19, 0x4d, 0xbe,
  0x25, 0xe8, 0x67, 0xbd, 0x40, 0xed, 0x41, 0x3e, 0xf5, 0x35, 0xcf, 0xbd,
  0xa4, 0xd4, 0x81, 0xbe, 0x93, 0xb6, 0x41, 0xbe, 0x73, 0xf6, 0xc9, 0xbd,
  0xe3, 0x64, 0x06, 0xbf, 0x60, 0x2f, 0x4d, 0xbe, 0x2e, 0x53, 0x68, 0xbe,
  0xc7, 0x7a, 0x5d, 0x3c, 0xa0, 0x18, 0x5e, 0xbe, 0xba, 0x9d, 0x05, 0xbd,
  0x3e, 0xe7, 0xc1, 0x3c, 0xe8, 0x02, 0x08, 0xbb, 0x8b, 0x49, 0x48, 0xbe,
  0xb3, 0x88, 0x32, 0xbe, 0x16, 0x8f, 0x51, 0xbf, 0xb6, 0x12, 0x63, 0xbd,
  0xfd, 0x8b, 0x0d, 0xbe, 0xb7, 0xbb, 0x93, 0x3d, 0x30, 0x4c, 0x15, 0xbd,
  0x95, 0xd0, 0x05, 0x3b, 0x7f, 0x74, 0x69, 0xbe, 0x3f, 0x7c, 0x13, 0xbe,
  0x7d, 0xcd, 0x16, 0xbe, 0x74, 0x51, 0xe9, 0xbd, 0x27, 0x92, 0x12, 0xbe,
  0x8a, 0xda, 0x0c, 0xbf, 0xe2, 0x4a, 0x97, 0xbb, 0xb0, 0xfe, 0xde, 0xbc,
  0x10, 0x80, 0xc4, 0xbd, 0x3a, 0xb3, 0xce, 0x3e, 0xf0, 0x03, 0x2d, 0xbf,
  0xdb, 0x24, 0x44, 0xbe, 0x70, 0xdb, 0xef, 0xbd, 0x8d, 0x5a, 0x01, 0xbe,
  0x24, 0x28, 0x1d, 0xbd, 0xb8, 0xc6, 0x51, 0xbd, 0x0f, 0xc0, 0x4c, 0xbc,
  0x5b, 0x2c, 0x87, 0xbc, 0xd3, 0xfa, 0x6d, 0xbe, 0x62, 0xca, 0xaf, 0xbd,
  0xee, 0xd3, 0x7e, 0xbe, 0x9d, 0x00, 0xc2, 0xbe, 0x1b, 0x4f, 0x93, 0xbc,
  0x88, 0x16, 0x9c, 0x3a, 0x2b, 0x45, 0x73, 0xbe, 0xd9, 0x54, 0x11, 0x3f,
  0x13, 0x70, 0x1d, 0xbf, 0xf5, 0xdb, 0x8f, 0xbd, 0xd8, 0xa1, 0x23, 0x3e,
  0x54, 0xe7, 0x5f, 0x3d, 0x0b, 0xf7, 0x8b, 0xbc, 0x92, 0x54, 0x6b, 0x3d,
  0xcd, 0x1f, 0x2f, 0x3e, 0xa2, 0x68, 0x9a, 0xbe, 0xd6, 0xfd, 0x01, 0xbe,
  0x13, 0x59, 0xa6, 0xbd, 0x30, 0xc7, 0x46, 0xbe, 0x7a, 0x5f, 0xe6, 0xbe,
  0x80, 0x9f, 0xee, 0xbc, 0x88, 0x05, 0xba, 0xbc, 0xf7, 0x20, 0xcb, 0x3e,
  0xd2, 0x20, 0x03, 0x3f, 0xf6, 0x50, 0x21, 0xbd, 0xd9, 0x45, 0x69, 0x3e,
  0x9b, 0x57, 0x20, 0x3d, 0x59, 0x54, 0x8c, 0x3e, 0x6a, 0x3f, 0xcb, 0xbc,
  0x80, 0xd6, 0xc9, 0xbb, 0xc3, 0x8b, 0xbf, 0xbc, 0xbd, 0xd1, 0x63, 0xbe,
  0x69, 0xe0, 0x5f, 0xbd, 0x00, 0xc2, 0x63, 0x3b, 0x2e, 0xa7, 0xb9, 0x3d,
  0xa9, 0xc0, 0x84, 0xbd, 0x38, 0xa1, 0x63, 0x3d, 0xae, 0x57, 0x1f, 0x3d,
  0xfa, 0x68, 0x1f, 0x3e, 0x37, 0x0e, 0xb4, 0x3e, 0x5b, 0x4c, 0xa1, 0x3d,
  0xf7, 0x70, 0x42, 0x3d, 0x17, 0x5d, 0xc7, 0x3d, 0x98, 0xc6, 0x4a, 0xbd,
  0x03, 0x2a, 0xea, 0xbe, 0xd6, 0x62, 0x61, 0xbd, 0x21, 0x21, 0x25, 0xbe,
  0x9f, 0x49, 0x12, 0x3e, 0x8b, 0xaf, 0x31, 0xbe, 0x64, 0x13, 0x33, 0xbf,
  0xe2, 0xf6, 0x4b, 0xbe, 0x30, 0x4e, 0x87, 0x3e, 0x3e, 0xbf, 0xdf, 0xbd,
  0xe4, 0xf6, 0x6e, 0x3d, 0xde, 0x47, 0x79, 0xbe, 0x19, 0x82, 0x4e, 0xbe,
  0x73, 0xd2, 0x3c, 0x3e, 0xe3, 0x8f, 0x90, 0xbe, 0x05, 0x51, 0x14, 0xbd,
  0xd4, 0xb0, 0xaf, 0xbd, 0x95, 0x18, 0x43, 0xbe, 0xab, 0xff, 0x9e, 0xbd,
  0xd4, 0x77, 0x10, 0xbd, 0x31, 0x6a, 0x4e, 0x3e, 0xc4, 0xca, 0xcf, 0xbe,
  0xa7, 0x22, 0x18, 0xbf, 0xbe, 0x19, 0xe2, 0x3d, 0x82, 0x67, 0x10, 0x3e,
  0x06, 0x42, 0xb4, 0x3b, 0x67, 0xfd, 0x7f, 0xbd, 0x2d, 0xdf, 0x6e, 0x3d,
  0x2c, 0xda, 0x0c, 0x3d, 0x4a, 0x95, 0xce, 0xbd, 0x5f, 0x0c, 0x6e, 0xbe,
  0x4f, 0x1a, 0x98, 0x3e, 0xab, 0x35, 0xa2, 0xbd, 0xf8, 0xca, 0x2c, 0xbe,
  0xf4, 0x58, 0x57, 0xbd, 0x9c, 0xcd, 0x78, 0x3d, 0x9d, 0xfb, 0x66, 0x3e,
  0x68, 0xc1, 0x44, 0xbe, 0x60, 0xea, 0x1e, 0xbe, 0x47, 0x00, 0xc5, 0xbd,
  0xf4, 0x44, 0xf1, 0x3d, 0x55, 0xe1, 0xfc, 0x3c, 0xf9, 0x34, 0xca, 0xbc,
  0x8c, 0x03, 0xc6, 0x3d, 0x09, 0x09, 0x11, 0xbe, 0xa8, 0xa9, 0xf4, 0x3d,
  0x99, 0x0d, 0xdc, 0x3d, 0x7e, 0x49, 0xbe, 0x3e, 0x33, 0xb3, 0x8e, 0x3d,
  0xc7, 0xf8, 0x98, 0xbd, 0x06, 0x56, 0x1f, 0xbe, 0xee, 0xd5, 0x19, 0x3d,
  0x33, 0xbf, 0xa9, 0x3d, 0xa0, 0x96, 0x6c, 0xbe, 0x11, 0x3f, 0x58, 0x3d,
  0x19, 0xdf, 0x9b, 0xbd, 0x2e, 0x5b, 0x4c, 0x3c, 0xea, 0xd5, 0x8a, 0xbb,
  0x36, 0xe6, 0xdc, 0xbc, 0x05, 0xad, 0xf1, 0x3c, 0x82, 0x58, 0x8e, 0xbe,
  0x83, 0x67, 0xf9, 0x3d, 0x31, 0x26, 0x0c, 0xbd, 0xb5, 0xf6, 0xaf, 0x3e,
  0x16, 0x3b, 0x5f, 0x3e, 0x1c, 0x43, 0xbc, 0xbe, 0x31, 0x58, 0x4b, 0xbe,
  0x5f, 0x1b, 0xc4, 0x3b, 0x78, 0x5b, 0x33, 0x3e, 0xc5, 0xa3, 0xd1, 0xbd,
  0x29, 0xd9, 0x2d, 0xbe, 0xff, 0xd8, 0x24, 0xbe, 0x91, 0x46, 0x8f, 0x3c,
  0x1d, 0x40, 0x86, 0x3d, 0x46, 0x33, 0x17, 0x3b, 0xb9, 0xa2, 0xb9, 0xbe,
  0x70, 0x17, 0x06, 0xbf, 0xe1, 0x7d, 0xde, 0x3d, 0xa5, 0x17, 0xa1, 0xbd,
  0xdf, 0xd1, 0x2c, 0x3e, 0xaa, 0xb0, 0x38, 0xbd, 0x15, 0x78, 0xf7, 0xbe,
  0xfa, 0x40, 0x63, 0xbe, 0x48, 0x23, 0x59, 0xbe, 0xa6, 0x56, 0x01, 0x3e,
  0x96, 0x9b, 0x36, 0xbe, 0x61, 0x47, 0x5c, 0xbe, 0x37, 0x7b, 0x10, 0xbe,
  0x78, 0xda, 0xe4, 0x3d, 0xa5, 0xfc, 0x21, 0x3d, 0x2f, 0x2e, 0x9b, 0x3c,
  0xd7, 0xe4, 0xc9, 0xbe, 0x0c, 0x6e, 0x59, 0xbe, 0x53, 0xb4, 0x42, 0x3e,
  0x2e, 0x04, 0xcf, 0xbe, 0xbc, 0x05, 0x65, 0x3e, 0x95, 0x9e, 0xbc, 0x3c,
  0xdb, 0x56, 0x83, 0xbe, 0x06, 0x04, 0x65, 0x3c, 0x2c, 0xe2, 0x5f, 0xbe,
  0x6d, 0x67, 0xa4, 0x3d, 0x57, 0x1c, 0xd6, 0xbe, 0x90, 0xc3, 0x06, 0xbd,
  0x25, 0xca, 0xca, 0xbe, 0x02, 0xdc, 0xec, 0x3d, 0xf3, 0xa2, 0x5e, 0xbd,
  0x8c, 0x4a, 0x30, 0x3b, 0x15, 0x06, 0x96, 0xbe, 0xa1, 0x6a, 0xe1, 0xbd,
  0x12, 0x46, 0x1d, 0x3e, 0x00, 0x65, 0xc8, 0xbe, 0xe9, 0x1d, 0x05, 0x3e,
  0xdd, 0x5d, 0xf4, 0x3e, 0x15, 0x7d, 0x85, 0xbe, 0xb7, 0x9d, 0xee, 0xbc,
  0x1c, 0x1a, 0xce, 0xbd, 0x43, 0x2d, 0x28, 0xbc, 0xea, 0x18, 0xf1, 0xbc,
  0xfe, 0xa1, 0x84, 0xbe, 0xce, 0x42, 0xf4, 0x3e, 0x6f, 0xa1, 0x81, 0xbe,
  0xb7, 0x82, 0x9e, 0xbc, 0x33, 0xf4, 0x86, 0xbe, 0x72, 0xad, 0x70, 0xbd,
  0x0a, 0x7f, 0x4f, 0x3e, 0x13, 0xb5, 0x5c, 0x3d, 0x16, 0x58, 0x00, 0x3d,
  0x92, 0x45, 0xdf, 0x3c, 0xbd, 0x9d, 0x18, 0x3f, 0xcb, 0x10, 0x15, 0xbe,
  0xb6, 0x58, 0xe4, 0xbd, 0xe1, 0xfd, 0xba, 0x3c, 0x5c, 0x96, 0xfb, 0xbd,
  0x7d, 0x61, 0xa3, 0x3d, 0x95, 0xb0, 0x45, 0xbe, 0xcf, 0x07, 0x14, 0x3f,
  0x16, 0xcc, 0x8b, 0xbe, 0x06, 0x61, 0xb8, 0x3b, 0x13, 0xf2, 0xa0, 0xbe,
  0xe5, 0x69, 0x23, 0xbe, 0xc7, 0x09, 0xcc, 0xbd, 0x3f, 0x52, 0x17, 0xbe,
  0x1e, 0x49, 0x0a, 0xbd, 0xb3, 0xd0, 0x0f, 0x3e, 0x4f, 0xdd, 0x0e, 0x3f,
  0x83, 0x19, 0x28, 0xbe, 0x61, 0xc1, 0x1e, 0xbd, 0xfd, 0xd7, 0x98, 0xba,
  0x18, 0xca, 0x21, 0xbe, 0x77, 0xdf, 0x14, 0x3e, 0x4e, 0x48, 0x6c, 0xbe,
  0xdf, 0x1e, 0x2f, 0x3f, 0xb0, 0x39, 0x37, 0xbe, 0x0f, 0x41, 0xba, 0x3c,
  0x63, 0xea, 0xb9, 0xbe, 0xfe, 0xd8, 0x13, 0xbd, 0x62, 0x8c, 0x65, 0xbe,
  0x7d, 0x08, 0xcd, 0xbd, 0xbc, 0x2e, 0x97, 0x3d, 0xc0, 0xb9, 0xc5, 0x3d,
  0x73, 0x22, 0x1d, 0x3f, 0x46, 0xcf, 0xea, 0xbd, 0x48, 0x55, 0x26, 0xbd,
  0xf6, 0xf3, 0x24, 0xbe, 0xd9, 0x25, 0x1b, 0xbe, 0xa8, 0xff, 0x14, 0xbe,
  0x95, 0x66, 0x86, 0xbe, 0x7e, 0x84, 0x0b, 0x3f, 0xee, 0x88, 0x3f, 0xbe,
  0x55, 0xf3, 0x29, 0x3c, 0xca, 0x09, 0x8a, 0xbe, 0xb3, 0x6e, 0x93, 0x3d,
  0xae, 0x48, 0x15, 0xbd, 0x1d, 0x79, 0x40, 0xbe, 0xf6, 0x7c, 0x29, 0x3e,
  0x10, 0xd3, 0x88, 0x3d, 0x3c, 0x3c, 0x34, 0x3f, 0x0e, 0x18, 0x5e, 0xbe,
  0x91, 0x3b, 0xa6, 0x3c, 0x97, 0xc3, 0x2f, 0x3e, 0x28, 0x4a, 0x18, 0x3d,
  0x9d, 0x88, 0x4e, 0xbd, 0xce, 0xb3, 0xa3, 0xbc, 0xbc, 0x81, 0x5e, 0x3f,
  0x4a, 0xf8, 0x53, 0x3d, 0xec, 0x37, 0x38, 0xbe, 0x05, 0x0d, 0xa5, 0xbe,
  0xc1, 0xb9, 0x1e, 0x3e, 0x28, 0x5f, 0x31, 0xbe, 0xec, 0x58, 0x41, 0xbe,
  0xe0, 0xa4, 0xf4, 0xbd, 0x41, 0x6d, 0xb7, 0xbb, 0xa6, 0x0b, 0x03, 0x3f,
  0x4b, 0x08, 0xa8, 0xbd, 0x7b, 0xe2, 0x80, 0x3d, 0xa1, 0x41, 0xc5, 0xbd,
  0x92, 0x2f, 0x8c, 0xbd, 0x6a, 0x6a, 0x6e, 0xbe, 0x1c, 0x06, 0x87, 0xbe,
  0x67, 0xf0, 0x4b, 0x3f, 0x43, 0xba, 0x3a, 0x3e, 0xc6, 0x00, 0x78, 0xbe,
  0xf1, 0xa0, 0x83, 0xbe, 0x86, 0x02, 0xec, 0xbd, 0x2e, 0xb8, 0x3b, 0xbc,
  0xe5, 0x27, 0x6d, 0x3d, 0x76, 0xd4, 0x62, 0xbd, 0x1e, 0x33, 0x1f, 0x3d,
  0xe0, 0x13, 0xe3, 0x3d, 0xa8, 0xc4, 0xee, 0xbd, 0x88, 0x80, 0xd4, 0xbd,
  0x8b, 0x83, 0x55, 0xbd, 0x7d, 0x59, 0x0e, 0xbd, 0xc4, 0x5e, 0xb3, 0x3d,
  0xd1, 0x2f, 0x31, 0xbe, 0xa0, 0x17, 0x3f, 0x3f, 0x42, 0xcd, 0x0a, 0xbe,
  0x55, 0x47, 0x13, 0x3d, 0xec, 0x96, 0x4c, 0xbe, 0xf1, 0x49, 0x01, 0xbe,
  0x4b, 0x08, 0x2b, 0xbe, 0x1a, 0xf6, 0x41, 0xbe, 0x6a, 0x81, 0x39, 0x3c,
  0x6c, 0xaa, 0x3b, 0xbc, 0x8a, 0xab, 0xf3, 0xbd, 0x7d, 0x2b, 0x5b, 0xbe,
  0x57, 0x67, 0x78, 0xbd, 0x03, 0x72, 0x8c, 0xbd, 0xc4, 0xdd, 0x89, 0x3d,
  0x93, 0xa5, 0x39, 0xbe, 0x01, 0xe9, 0x2d, 0xbe, 0xb9, 0xde, 0xca, 0x3d,
  0x3d, 0x88, 0x05, 0xbe, 0x38, 0x17, 0x20, 0x3e, 0xfc, 0x70, 0x8f, 0xbe,
  0x50, 0x5c, 0x85, 0xbd, 0x0c, 0x88, 0x98, 0x3d, 0xfd, 0x1d, 0x0e, 0x3e,
  0x00, 0xff, 0x4f, 0xbd, 0x2d, 0x66, 0x83, 0xbd, 0xfd, 0x9c, 0x04, 0x3e,
  0xb1, 0x07, 0x58, 0xbd, 0x76, 0xa5, 0x8d, 0xbe, 0xfc, 0x53, 0x01, 0xbe,
  0xa5, 0x71, 0x15, 0xbe, 0xeb, 0x77, 0xbc, 0x3d, 0xfc, 0x6a, 0x2c, 0xbe,
  0xb5, 0xd9, 0x3e, 0x3e, 0x33, 0xd8, 0x57, 0x3e, 0x9b, 0x2a, 0xe2, 0xbd,
  0x3e, 0x1d, 0x82, 0xbe, 0x52, 0x02, 0x31, 0x3c, 0x32, 0x4d, 0x4c, 0x3d,
  0xa5, 0x5f, 0x12, 0x3d, 0x0c, 0x2c, 0x6d, 0xbe, 0x35, 0xc7, 0x68, 0x3e,
  0x36, 0xe8, 0x0c, 0xbe, 0xde, 0x5b, 0x2e, 0xbe, 0x01, 0x12, 0x52, 0xbe,
  0x23, 0x74, 0xba, 0x3d, 0xef, 0xdf, 0x52, 0x3b, 0x72, 0x54, 0x79, 0xbd,
  0x85, 0x35, 0x6a, 0xbe, 0x71, 0x8c, 0x41, 0xbe, 0x47, 0x62, 0x17, 0xbc,
  0x25, 0xbe, 0x3a, 0x3d, 0x0d, 0x37, 0xd9, 0xbe, 0xf4, 0xb0, 0x99, 0x3d,
  0x07, 0x3d, 0x85, 0xbd, 0x46, 0xa3, 0x2a, 0xbd, 0x45, 0x5d, 0x8b, 0x3d,
  0x83, 0x2b, 0x41, 0x3e, 0x77, 0x1c, 0x07, 0xbe, 0xb9, 0x80, 0xf6, 0x3c,
  0x5b, 0x8a, 0xef, 0xbd, 0x77, 0x8d, 0x0e, 0x3d, 0x23, 0x72, 0x66, 0x3d,
  0x13, 0x01, 0x8c, 0x3c, 0x91, 0x7a, 0x34, 0x3e, 0x13, 0xc4, 0xe5, 0x3d,
  0x04, 0xa5, 0x30, 0xbd, 0xc6, 0xdd, 0x26, 0x3d, 0xd2, 0x4f, 0x84, 0xbe,
  0xc1, 0xa2, 0x05, 0xbd, 0xe8, 0xa6, 0x89, 0xbe, 0xa4, 0x7e, 0xb7, 0x3d,
  0x3d, 0xac, 0x13, 0xbe, 0x4d, 0xb8, 0x42, 0x3e, 0x11, 0x4b, 0x20, 0xbe,
  0x1f, 0xd1, 0x8d, 0x3d, 0x2a, 0xcb, 0x3b, 0xbe, 0x29, 0x22, 0xb4, 0x3d,
  0x2a, 0x7f, 0x3f, 0xbe, 0x19, 0xee, 0x8d, 0xbc, 0x76, 0x0a, 0x0f, 0xbe,
  0xd1, 0x24, 0x1c, 0xbe, 0xd4, 0x56, 0x3f, 0x3e, 0xba, 0x18, 0xe7, 0x3d,
  0x57, 0xd5, 0x7e, 0xbe, 0x5f, 0xe8, 0x38, 0xbe, 0x3a, 0x85, 0xf7, 0xbc,
  0xcb, 0xb4, 0x14, 0x3e, 0x19, 0x1c, 0x0d, 0x3e, 0xf3, 0x27, 0x15, 0x3e,
  0x87, 0x71, 0xc3, 0x3b, 0x0f, 0x72, 0x21, 0xbd, 0x27, 0xae, 0xe7, 0xbd,
  0x1f, 0x2e, 0x02, 0xbe, 0x2e, 0x56, 0x2e, 0x3e, 0x6e, 0xa7, 0x93, 0xbd,
  0x79, 0xa3, 0x8e, 0x3b, 0xd5, 0x70, 0xe1, 0x3d, 0x2b, 0x64, 0x38, 0xbd,
  0x2f, 0x90, 0x09, 0x39, 0xae, 0xc3, 0x26, 0xbe, 0xb2, 0x50, 0x5a, 0xbe,
  0x04, 0xbf, 0xe8, 0xbd, 0x87, 0x6b, 0x9e, 0xbe, 0xb3, 0x4f, 0xea, 0xbc,
  0xa1, 0x22, 0xe2, 0x3d, 0xfd, 0xf5, 0xbe, 0xbd, 0x1a, 0x99, 0xce, 0xbd,
  0x12, 0x12, 0x51, 0xbd, 0xae, 0x84, 0x23, 0x3d, 0x96, 0x54, 0x2c, 0x3c,
  0x9e, 0xdc, 0x3c, 0xbe, 0x9a, 0x8b, 0x31, 0x3d, 0xfd, 0x12, 0xd7, 0x3c,
  0x49, 0x0d, 0x61, 0x3c, 0xd8, 0xb6, 0xc9, 0xbd, 0x3f, 0xb2, 0x49, 0xbe,
  0x2e, 0x9d, 0x8f, 0xbd, 0x72, 0x60, 0x49, 0xbe, 0x5c, 0xc0, 0x7b, 0xbc,
  0xbf, 0xab, 0x0e, 0x3c, 0xaf, 0xc4, 0xfa, 0x3d, 0x14, 0xc5, 0x22, 0x3f,
  0xee, 0x89, 0xaa, 0xbd, 0x05, 0x82, 0xde, 0xbd, 0x09, 0x2e, 0xe6, 0xbc,
  0xa0, 0x32, 0x99, 0xbd, 0x37, 0x56, 0x7f, 0xbd, 0xce, 0x3e, 0xf1, 0xbe,
  0xeb, 0x32, 0x2f, 0x3f, 0x2f, 0x01, 0xab, 0xbe, 0x20, 0x20, 0xa4, 0x3c,
  0x0a, 0x95, 0x3a, 0xbd, 0x7e, 0x78, 0x38, 0xbe, 0x25, 0x58, 0x51, 0xbe,
  0xcb, 0x1f, 0xb8, 0xbe, 0xba, 0x8d, 0x83, 0xbe, 0xdb, 0x22, 0x3b, 0xbd,
  0x19, 0x5b, 0x1f, 0x3f, 0x31, 0xb0, 0x60, 0xbe, 0x26, 0x61, 0xd0, 0xbd,
  0x85, 0xf4, 0xed, 0xbe, 0x20, 0x02, 0x3a, 0xbe, 0x82, 0x42, 0xf0, 0xbe,
  0x40, 0xe5, 0xf8, 0xbe, 0x75, 0xb3, 0xa8, 0x3f, 0x50, 0x57, 0x17, 0xbe,
  0xf6, 0xda, 0x83, 0x3d, 0xd3, 0x06, 0xfc, 0xbc, 0x4a, 0x5d, 0xa4, 0xbe,
  0x80, 0x85, 0x27, 0xbe, 0xd6, 0x37, 0x49, 0xbe, 0x52, 0xce, 0x24, 0xbc,
  0x5c, 0x1e, 0x88, 0xbd, 0x25, 0x5e, 0xf3, 0x3e, 0x7c, 0x68, 0x4e, 0xbe,
  0x9b, 0x9b, 0xb8, 0xbd, 0x87, 0xfc, 0x2d, 0xbe, 0xad, 0xb6, 0x77, 0x3c,
  0xec, 0x88, 0x51, 0xbe, 0xec, 0xe7, 0xf5, 0xbe, 0xa5, 0x71, 0x91, 0x3f,
  0xcc, 0xd0, 0x1e, 0x3d, 0x29, 0x1b, 0x05, 0xbd, 0xb4, 0x26, 0x5f, 0xbd,
  0x2a, 0x85, 0xa2, 0xbe, 0xd2, 0xa6, 0xb3, 0xbe, 0xc2, 0x74, 0x41, 0x3d,
  0xb7, 0xb3, 0xd1, 0xbd, 0x8f, 0xe0, 0x3a, 0x3c, 0x66, 0x92, 0x3e, 0x3f,
  0x4a, 0x8c, 0x92, 0xbe, 0xc3, 0x8f, 0xe5, 0xbd, 0x0a, 0x9d, 0x57, 0xbd,
  0xb6, 0x77, 0x83, 0xbe, 0x6c, 0xcd, 0x29, 0xbe, 0xa0, 0x01, 0xaf, 0xbe,
  0x9c, 0x77, 0xa7, 0x3f, 0x5b, 0xd0, 0x2d, 0x3d, 0x83, 0x97, 0x0c, 0x3c,
  0x11, 0xd1, 0xf4, 0xbc, 0x7c, 0xfd, 0x3d, 0xbe, 0x28, 0xff, 0x43, 0x3d,
  0x6b, 0x2a, 0x22, 0x3c, 0xba, 0x7d, 0x62, 0xbd, 0xad, 0x4d, 0x89, 0xbc,
  0x77, 0xd1, 0x4a, 0x3e, 0xeb, 0x20, 0xb1, 0x3d, 0xad, 0xb3, 0xc9, 0xbd,
  0xa9, 0xf9, 0x2c, 0x3d, 0x68, 0xb9, 0xea, 0x3d, 0x4c, 0xfd, 0x0a, 0xbe,
  0x92, 0xb5, 0x81, 0xbe, 0xd8, 0x0a, 0x9f, 0x3f, 0x16, 0x96, 0x6c, 0x3d,
  0xaf, 0xe7, 0xb1, 0xbd, 0x38, 0x98, 0xbd, 0xbc, 0xe6, 0x1c, 0x03, 0x3d,
  0xd7, 0xd3, 0x53, 0x3e, 0xb4, 0xa5, 0x17, 0x3d, 0xae, 0x3d, 0xc2, 0xbd,
  0x42, 0x26, 0xd6, 0x3d, 0x96, 0xdd, 0xbf, 0x3e, 0xae, 0x17, 0x17, 0x3b,
  0x9b, 0xa0, 0x4a, 0xbd, 0x2c, 0x18, 0x19, 0x3e, 0x92, 0xb1, 0x9e, 0x3d,
  0x37, 0x86, 0x47, 0xbc, 0x15, 0xf8, 0xe3, 0xbd, 0xb3, 0x64, 0xa1, 0x3f,
  0x3b, 0x17, 0x5a, 0xbc, 0xf0, 0x73, 0xc5, 0xbd, 0x00, 0x0a, 0x4c, 0xbc,
  0x18, 0x00, 0x22, 0x3e, 0xfd, 0x01, 0x8a, 0x3e, 0x2d, 0xb3, 0x1d, 0x3d,
  0x23, 0xf6, 0xcf, 0x3d, 0xb2, 0xf2, 0x1a, 0x3e, 0x70, 0xcd, 0xba, 0x3d,
  0x30, 0x7f, 0x9b, 0xbc, 0x17, 0x13, 0x92, 0x3d, 0x5f, 0x84, 0x3b, 0x3a,
  0x77, 0x8e, 0xa5, 0x3d, 0x14, 0xfc, 0x1b, 0x3d, 0x89, 0x13, 0xa8, 0x3d,
  0x8e, 0x16, 0xdf, 0x3e, 0x4a, 0x5c, 0x89, 0x3d, 0x83, 0x56, 0x52, 0xbe,
  0xcc, 0xac, 0xab, 0x3d, 0x7b, 0xbf, 0xf4, 0x3d, 0xd9, 0x96, 0x2a, 0x3e,
  0xef, 0xbe, 0x7a, 0x3d, 0xf1, 0xca, 0xf9, 0xbc, 0xc8, 0x23, 0x11, 0x3e,
  0xa2, 0xbf, 0x06, 0xbe, 0x0d, 0x0c, 0x4a, 0xbe, 0xc6, 0xe4, 0x5d, 0xbe,
  0x97, 0xbf, 0x38, 0xbe, 0xc9, 0xa3, 0x4f, 0x3d, 0x9c, 0x61, 0x68, 0x3d,
  0x2c, 0x17, 0xde, 0x3c, 0xda, 0xa1, 0x71, 0x3e, 0xf0, 0xe4, 0xdc, 0xbe,
  0x26, 0x58, 0x35, 0x3e, 0xca, 0x50, 0xb5, 0xbc, 0x01, 0xf0, 0xd9, 0x3d,
  0x9f, 0xd6, 0xda, 0x3d, 0x92, 0xd5, 0xf7, 0xbe, 0xc0, 0x05, 0x93, 0xbe,
  0xe4, 0xc2, 0x80, 0xbd, 0x92, 0x0a, 0x56, 0xbc, 0x04, 0x3d, 0x72, 0xbc,
  0xe2, 0xf4, 0xbd, 0x3e, 0x8d, 0x73, 0x7d, 0xbe, 0x2d, 0x74, 0x8f, 0xbe,
  0x46, 0xb4, 0xb3, 0xbd, 0xdc, 0x1b, 0x90, 0x3d, 0x5f, 0x69, 0xf9, 0xbe,
  0x3c, 0x60, 0x14, 0xbf, 0xa8, 0x23, 0x9c, 0x3d, 0xe9, 0x75, 0x71, 0x3d,
  0xf5, 0x9f, 0x95, 0x3d, 0x4b, 0xac, 0x0c, 0x3d, 0xde, 0xaa, 0xff, 0xbe,
  0x5d, 0xa1, 0x1f, 0xbc, 0x66, 0x54, 0x1b, 0xbd, 0x21, 0xfe, 0x8a, 0xbd,
  0xf1, 0x14, 0xb1, 0x3d, 0x44, 0x1a, 0xb4, 0x3e, 0xae, 0x13, 0x69, 0xbe,
  0x02, 0xe0, 0x97, 0xbe, 0x7a, 0x07, 0x64, 0xbd, 0x38, 0xb7, 0xbe, 0x3d,
  0xa5, 0x2a, 0xd3, 0xbe, 0x15, 0x65, 0xe9, 0xbe, 0x00, 0x00, 0xc8, 0x3c,
  0x81, 0x57, 0x8c, 0x3d, 0x2f, 0xb0, 0xe3, 0x3d, 0x57, 0x95, 0x6c, 0x3d,
  0xef, 0xd7, 0xde, 0xbe, 0x70, 0xfd, 0x72, 0x3e, 0x65, 0x26, 0x37, 0x3e,
  0x27, 0x37, 0x44, 0xbc, 0x4c, 0xa3, 0x9d, 0x3d, 0x88, 0x1b, 0xa8, 0x3e,
  0x9c, 0xd7, 0xd6, 0xbd, 0xee, 0xac, 0x33, 0x3d, 0x2b, 0xd7, 0xf4, 0xbd,
  0xc6, 0xf3, 0x8e, 0x3d, 0xe5, 0xfa, 0x96, 0xbe, 0xeb, 0x67, 0xe4, 0xbd,
  0x9a, 0xe5, 0x32, 0x3d, 0xd8, 0xf4, 0xa2, 0x3d, 0x2a, 0x31, 0xd7, 0x3d,
  0x1d, 0xa5, 0x38, 0x3e, 0x06, 0x8b, 0xeb, 0xbe, 0x54, 0x03, 0x5c, 0x3e,
  0xff, 0xc6, 0xa4, 0x3d, 0x90, 0x0d, 0x8d, 0xbc, 0xb4, 0x41, 0x02, 0x3e,
  0xa8, 0x05, 0xa2, 0x3e, 0xab, 0xf9, 0x27, 0xbe, 0xdc, 0x70, 0x92, 0xbe,
  0xf2, 0xa1, 0x0d, 0xbe, 0x89, 0xa6, 0x94, 0x3d, 0x87, 0x32, 0x9c, 0xbe,
  0x27, 0x2e, 0x96, 0xbe, 0xe7, 0x16, 0xd9, 0x3c, 0xea, 0x3f, 0x84, 0x3d,
  0x42, 0xf5, 0x04, 0x3d, 0x1f, 0x2c, 0xcf, 0xbd, 0xbe, 0xec, 0xe8, 0xbe,
  0x65, 0xee, 0x25, 0x3d, 0x91, 0xe7, 0xcd, 0xbd, 0x60, 0x2e, 0x36, 0x3e,
  0x13, 0x84, 0x06, 0xbe, 0x7c, 0x26, 0x8c, 0x3e, 0x24, 0x9e, 0x48, 0xbe,
  0xe5, 0xb3, 0xa8, 0xbe, 0xcf, 0x24, 0x51, 0xbc, 0x38, 0xa2, 0xea, 0x3c,
  0x27, 0x98, 0x67, 0xbe, 0x5d, 0xc0, 0xc8, 0xbe, 0xb5, 0xd7, 0xcf, 0x3a,
  0x0f, 0x14, 0x1e, 0x3d, 0x77, 0x11, 0xc2, 0xbd, 0x93, 0x67, 0x1e, 0xbe,
  0xa8, 0x40, 0x07, 0xbf, 0x0d, 0x06, 0xd8, 0x3d, 0x27, 0xfa, 0xeb, 0xbe,
  0xeb, 0x49, 0x07, 0xbd, 0x3b, 0xba, 0xf9, 0xbc, 0xd3, 0x0d, 0x8c, 0xbd,
  0x41, 0x97, 0x20, 0x3b, 0x70, 0xd4, 0xbb, 0xbe, 0x50, 0xe5, 0xc9, 0x3c,
  0x6a, 0xc4, 0x73, 0xbc, 0x0b, 0xb2, 0xc4, 0x3e, 0x9d, 0x2e, 0x8c, 0xbe,
  0xf3, 0xe5, 0xfa, 0x3d, 0xe2, 0x48, 0x7c, 0xbb, 0xa2, 0x28, 0xd0, 0xbc,
  0xbb, 0x7b, 0x4a, 0xbe, 0xa8, 0xbf, 0x8b, 0xbc, 0x04, 0xa0, 0x04, 0xbd,
  0x47, 0x04, 0x3a, 0xbe, 0xc0, 0x16, 0xf0, 0xbd, 0xa2, 0xff, 0xed, 0xbd,
  0xbc, 0xb5, 0x17, 0xbe, 0x14, 0x02, 0x48, 0x3d, 0x99, 0xee, 0x32, 0x3e,
  0x49, 0x5f, 0xd0, 0xbd, 0x4c, 0x05, 0xb2, 0xbd, 0x09, 0xf1, 0x5f, 0xbe,
  0xf1, 0xea, 0xd0, 0x3d, 0xfc, 0xfd, 0xbc, 0xbd, 0x6b, 0x0f, 0xe4, 0xbd,
  0x81, 0x77, 0x2c, 0x3c, 0xd1, 0x8d, 0x02, 0xbe, 0xa4, 0xba, 0x81, 0xbe,
  0x6a, 0x3a, 0xd4, 0x3d, 0xd8, 0x26, 0xa2, 0x3d, 0xef, 0xaf, 0x17, 0x3e,
  0x7f, 0x93, 0x5a, 0xbd, 0xa1, 0xba, 0x65, 0xbe, 0x54, 0xe3, 0x4d, 0xbe,
  0x13, 0xf9, 0xd6, 0xbd, 0x4c, 0x26, 0x88, 0x3d, 0xa3, 0xa7, 0x07, 0xbd,
  0x72, 0x88, 0xe7, 0xbc, 0x67, 0x61, 0xd4, 0x3d, 0x6f, 0xd4, 0x9a, 0xbd,
  0xec, 0x41, 0xd7, 0xbd, 0xbf, 0x26, 0x1a, 0xbc, 0xf3, 0x81, 0xaf, 0xbd,
  0xf3, 0x8f, 0x0d, 0xbd, 0x29, 0x1f, 0xa4, 0x3c, 0x83, 0x6f, 0x52, 0x3e,
  0x99, 0x47, 0x3a, 0x3d, 0x45, 0x4f, 0x81, 0xbe, 0x11, 0xda, 0x20, 0x3d,
  0x23, 0x58, 0x60, 0xbd, 0x07, 0xda, 0x0a, 0xbe, 0x5f, 0x93, 0xe4, 0xbd,
  0x38, 0x6c, 0x81, 0xbe, 0x38, 0xa5, 0x40, 0xbe, 0xee, 0xf5, 0x78, 0xbe,
  0x45, 0xee, 0x76, 0x3c, 0xd1, 0x15, 0x27, 0xbe, 0x9b, 0xeb, 0x26, 0x3e,
  0x16, 0x13, 0xd9, 0x3c, 0x98, 0x17, 0x0d, 0xbd, 0x74, 0xf3, 0x46, 0x3e,
  0xc5, 0xfb, 0x60, 0xbd, 0x67, 0xe6, 0xf6, 0xbd, 0x80, 0x01, 0xe2, 0xbd,
  0x7d, 0xe9, 0x99, 0xbe, 0x52, 0x2c, 0xed, 0x3d, 0x34, 0x18, 0xae, 0xbc,
  0x2c, 0x1b, 0xb7, 0xbc, 0x31, 0x25, 0x37, 0xbd, 0x3b, 0xaa, 0xdb, 0x3c,
  0xc8, 0xa3, 0x05, 0x3e, 0xf9, 0x00, 0xbe, 0xbb, 0xd4, 0x9a, 0x9d, 0xbe,
  0x4e, 0x39, 0x05, 0xbe, 0x98, 0x67, 0xe5, 0x3d, 0xee, 0x06, 0x47, 0xbe,
  0x72, 0x65, 0x3c, 0xbe, 0x17, 0x83, 0x4a, 0xbe, 0x5a, 0x13, 0x7e, 0x3d,
  0x88, 0xc3, 0x1b, 0xbc, 0x51, 0x17, 0x86, 0xbe, 0xdc, 0xf9, 0xd1, 0x3d,
  0x61, 0xa4, 0xad, 0x3d, 0xb6, 0x9d, 0xf1, 0x3d, 0x1e, 0x05, 0x00, 0xbe,
  0x45, 0x23, 0x2d, 0xbe, 0x3a, 0x0c, 0x38, 0x3c, 0xa2, 0xe8, 0x90, 0x3c,
  0x3f, 0x8a, 0x5f, 0xbe, 0xa5, 0xb7, 0xad, 0x3d, 0x81, 0xda, 0xe6, 0x3d,
  0x68, 0xde, 0xbc, 0x3d, 0x32, 0xc5, 0x1d, 0xbe, 0x0d, 0x38, 0x59, 0xbe,
  0x48, 0x68, 0x77, 0x3c, 0xad, 0x23, 0x27, 0xbe, 0x20, 0xeb, 0x4a, 0xbd,
  0x28, 0x91, 0xff, 0xbb, 0xd0, 0xba, 0x0e, 0xbe, 0x80, 0xa9, 0x81, 0x3d,
  0x10, 0x30, 0xb2, 0xbd, 0x1c, 0x2b, 0xe9, 0xbd, 0x76, 0xcb, 0x17, 0xbe,
  0x4b, 0x57, 0x8f, 0x3d, 0x08, 0x62, 0x9d, 0xbe, 0xd3, 0x1d, 0x5f, 0xbe,
  0x56, 0xff, 0xef, 0x3d, 0xa6, 0x11, 0x85, 0xbe, 0xde, 0xbf, 0x6f, 0xbd,
  0xa7, 0x04, 0x50, 0x3c, 0xd0, 0x68, 0x06, 0x3e, 0xc8, 0x17, 0x81, 0xbe,
  0xe7, 0x5c, 0x45, 0xbe, 0x12, 0xc8, 0x83, 0x3d, 0x4d, 0x79, 0x71, 0xbd,
  0x6c, 0x9e, 0xd5, 0x3d, 0x4e, 0x62, 0x0b, 0xbc, 0x9a, 0x83, 0x37, 0xbe,
  0xda, 0x9a, 0xa9, 0x3d, 0x24, 0xae, 0x6a, 0xbe, 0x51, 0x17, 0x99, 0xbe,
  0x55, 0xc4, 0x29, 0xbe, 0x66, 0x99, 0x4b, 0xbe, 0xf2, 0xdb, 0x34, 0xbe,
  0x6f, 0x7e, 0x3c, 0x3d, 0xd5, 0x26, 0x1a, 0xbe, 0x55, 0x1e, 0xda, 0x3e,
  0xde, 0x75, 0xe3, 0x3d, 0x2e, 0xda, 0x20, 0x3e, 0x9e, 0x5f, 0x72, 0x3d,
  0x4e, 0x82, 0xbb, 0xbd, 0x59, 0x91, 0xc7, 0xbd, 0xf5, 0xa5, 0xf3, 0x3c,
  0x07, 0x13, 0x8c, 0x3e, 0xaa, 0x91, 0xa3, 0x3d, 0x64, 0xfd, 0xdf, 0xbd,
  0x29, 0x7f, 0xd7, 0x3d, 0xfd, 0x44, 0x23, 0x3d, 0x5b, 0x28, 0x2e, 0x3d,
  0x4f, 0xf7, 0x00, 0x3e, 0x72, 0x9f, 0x36, 0x3e, 0x23, 0x4c, 0x40, 0xbc,
  0x64, 0xec, 0x4e, 0x3f, 0x65, 0x2a, 0x06, 0x3e, 0xbe, 0xfa, 0xfe, 0xbd,
  0xd2, 0x42, 0x00, 0xbc, 0x02, 0x9d, 0x16, 0x3e, 0x09, 0xd4, 0x9b, 0xbd,
  0xf8, 0xab, 0x91, 0xbd, 0xce, 0x65, 0x7f, 0x3f, 0x99, 0xcd, 0x08, 0x3b,
  0x49, 0x72, 0x06, 0xbd, 0x75, 0x8b, 0x8b, 0x3c, 0xb8, 0xc9, 0x6f, 0x3d,
  0xc6, 0xee, 0xac, 0xbd, 0xc3, 0x08, 0xfe, 0xbc, 0x04, 0xcd, 0x3b, 0x3e,
  0x4c, 0xc1, 0x07, 0x3e, 0x13, 0xc9, 0xef, 0x3e, 0x56, 0xb4, 0x61, 0xbe,
  0x71, 0x96, 0x85, 0xbe, 0x8f, 0xc9, 0x6a, 0xbd, 0xa6, 0x45, 0xc1, 0x3d,
  0x34, 0xcf, 0x93, 0xbe, 0x67, 0x6d, 0x73, 0xbd, 0x30, 0x84, 0x23, 0x3f,
  0xce, 0x32, 0xb2, 0x3d, 0xf1, 0xa7, 0xb2, 0xbc, 0x57, 0x39, 0x4a, 0xbd,
  0xd2, 0x1d, 0x26, 0xbe, 0x4c, 0x92, 0x1d, 0xbc, 0x16, 0x6e, 0xa5, 0x3c,
  0x16, 0x1b, 0x8e, 0xbd, 0xde, 0x4a, 0x42, 0x3e, 0x36, 0xc7, 0x15, 0x3f,
  0x1e, 0x03, 0x4a, 0xbe, 0x05, 0x52, 0x66, 0xbe, 0x89, 0x6c, 0x08, 0xbe,
  0xd2, 0xd8, 0x0d, 0x3d, 0x92, 0x50, 0x08, 0xbe, 0xb5, 0x7b, 0x0b, 0xbe,
  0xde, 0xab, 0x0e, 0x3f, 0x21, 0xd3, 0x9c, 0xbd, 0x2e, 0x49, 0x64, 0x3b,
  0x0b, 0xca, 0x65, 0xbd, 0x26, 0x9b, 0x85, 0xbd, 0x42, 0x8a, 0x3d, 0x3d,
  0x1f, 0x08, 0x2b, 0x3e, 0xa5, 0x91, 0x0c, 0xbf, 0xae, 0x19, 0x6b, 0x3e,
  0x9a, 0x50, 0x11, 0x3f, 0xd3, 0xe1, 0x84, 0xbd, 0xb5, 0x68, 0x39, 0xbe,
  0x05, 0x4e, 0x35, 0xbd, 0xf2, 0x56, 0x28, 0xbd, 0x07, 0x8b, 0xc6, 0xbb,
  0x6f, 0xfa, 0xbf, 0x3c, 0xb8, 0xb9, 0x37, 0x3f, 0x22, 0x4e, 0x70, 0xbe,
  0x75, 0xe9, 0xad, 0x3c, 0xa7, 0x5e, 0x4d, 0xbd, 0x0d, 0x8f, 0xb6, 0x3d,
  0xae, 0x8b, 0x10, 0xbe, 0x6f, 0x82, 0xb0, 0x3d, 0x11, 0x4b, 0xd2, 0xbe,
  0x85, 0x67, 0x0e, 0x3d, 0x07, 0xa7, 0x22, 0x3f, 0xf4, 0xe9, 0x88, 0xbc,
  0x37, 0x45, 0xa9, 0xbe, 0x39, 0xd3, 0x3b, 0xbe, 0xff, 0xb5, 0xac, 0xbd,
  0x61, 0x54, 0x48, 0x3d, 0xf8, 0x62, 0xeb, 0xbc, 0x1e, 0x7b, 0x66, 0x3f,
  0x56, 0x3b, 0xa8, 0xbd, 0x15, 0xe7, 0x00, 0x3d, 0x9d, 0xbe, 0x57, 0xbd,
  0x6c, 0x1f, 0xaf, 0xbd, 0x69, 0x97, 0xab, 0x3d, 0x42, 0x0c, 0xad, 0xbd,
  0x2f, 0x9d, 0xb6, 0xbe, 0xc3, 0x51, 0x56, 0xbe, 0xc4, 0x78, 0xd5, 0xbc,
  0x92, 0xe0, 0x3f, 0xbc, 0x86, 0xc4, 0x2c, 0xbe, 0xce, 0xa4, 0xa2, 0xbc,
  0x61, 0x47, 0x83, 0xbe, 0xb3, 0xba, 0xa1, 0xbd, 0xc7, 0x2a, 0xc7, 0xbd,
  0xc0, 0x05, 0xee, 0x3e, 0x25, 0x70, 0xe5, 0xbd, 0x1d, 0x93, 0x5b, 0x3d,
  0xd3, 0x39, 0x80, 0xbd, 0xd3, 0xeb, 0x81, 0x3d, 0x49, 0x22, 0xb8, 0xbd,
  0xff, 0x4b, 0xa5, 0xbd, 0x9f, 0x5f, 0x63, 0xbc, 0x15, 0x02, 0x48, 0xbd,
  0x3a, 0x33, 0x47, 0xbe, 0x1c, 0x30, 0xdf, 0xbd, 0x81, 0x4b, 0x07, 0xbe,
  0xb2, 0x21, 0xa9, 0x3d, 0x5d, 0x39, 0xa7, 0xbd, 0xa6, 0xd6, 0xa6, 0xbc,
  0xc8, 0x12, 0xea, 0x3d, 0x8d, 0xaf, 0xee, 0xbd, 0x46, 0xe9, 0xee, 0x3c,
  0x55, 0xfa, 0x34, 0x3b, 0xf2, 0x5e, 0x29, 0xbe, 0x2d, 0x9e, 0x84, 0xbe,
  0x46, 0x9f, 0x00, 0xbd, 0xdf, 0x65, 0xf3, 0xbc, 0x64, 0xe0, 0xde, 0xbd,
  0x09, 0x0b, 0x0b, 0x3e, 0xc6, 0x98, 0x93, 0x3d, 0x34, 0xd0, 0x6f, 0xbe,
  0x2e, 0xbf, 0x4c, 0xbe, 0x28, 0x7e, 0xb8, 0x3d, 0x18, 0x62, 0x2c, 0x3d,
  0xa4, 0xd2, 0x11, 0xbe, 0xe8, 0x92, 0x3f, 0xbe, 0x80, 0xc1, 0x76, 0x3b,
  0x17, 0x32, 0x41, 0xbe, 0x2e, 0x59, 0x50, 0xbe, 0x66, 0xd9, 0x31, 0xbe,
  0x0d, 0x95, 0xb5, 0x3d, 0x58, 0xb4, 0x07, 0x3e, 0xa3, 0xa4, 0x46, 0xbe,
  0xab, 0xec, 0x84, 0xbd, 0xf1, 0x9b, 0x3b, 0x3e, 0x40, 0xd0, 0x09, 0x3d,
  0xa6, 0x38, 0xe6, 0xbd, 0x61, 0x6d, 0x8b, 0x3c, 0xb7, 0xbd, 0x1f, 0xbe,
  0x77, 0x09, 0x42, 0xbe, 0xe5, 0x40, 0x15, 0xbe, 0x19, 0x8d, 0xd2, 0x3d,
  0xa5, 0x27, 0x79, 0x3d, 0x60, 0x0f, 0x5a, 0x3d, 0xfa, 0xf5, 0x95, 0xbe,
  0x3f, 0x6a, 0x5a, 0xbe, 0xdd, 0x19, 0xae, 0x3d, 0x2f, 0xc2, 0x95, 0xbd,
  0x6d, 0xef, 0xac, 0xbd, 0x14, 0x95, 0xbd, 0x3d, 0x8d, 0x8c, 0x0c, 0xbd,
  0x9a, 0x80, 0xbd, 0x3d, 0x30, 0x07, 0xb0, 0x3d, 0xd0, 0x70, 0xeb, 0x3c,
  0xf9, 0xbf, 0x1a, 0xbe, 0xc8, 0x18, 0x5a, 0x3e, 0x88, 0xc1, 0x3f, 0x3d,
  0x2f, 0xb3, 0x8a, 0xbe, 0xe5, 0x62, 0xf2, 0x3c, 0x15, 0x98, 0x38, 0xbd,
  0x38, 0x66, 0x91, 0xbd, 0x50, 0x42, 0xd5, 0xbd, 0x12, 0x98, 0x4c, 0x3d,
  0xd0, 0x0d, 0x63, 0xbc, 0xc6, 0x63, 0xf0, 0xbd, 0x1d, 0x61, 0x32, 0x3e,
  0xc3, 0xa3, 0xc7, 0x3d, 0x89, 0xbf, 0x3b, 0xbe, 0x58, 0xa7, 0x57, 0xbd,
  0x33, 0x09, 0x2b, 0x3d, 0xc8, 0xcb, 0x0c, 0xbe, 0x06, 0x53, 0x9b, 0x3c,
  0x10, 0x40, 0x54, 0xbe, 0xd1, 0x4d, 0x15, 0x3d, 0x02, 0xbb, 0x5b, 0xbe,
  0xea, 0x76, 0x40, 0xbd, 0x65, 0x6e, 0xbd, 0x3d, 0xaa, 0x7e, 0xbc, 0xbe,
  0x0b, 0x1a, 0x7b, 0xbe, 0x86, 0x6f, 0x37, 0x3e, 0x1a, 0xa5, 0xd7, 0xbd,
  0x33, 0xf5, 0x11, 0x3d, 0x0f, 0xed, 0x40, 0xbe, 0xb5, 0xde, 0x73, 0xbd,
  0x74, 0xfc, 0x6e, 0xbe, 0x6a, 0x1b, 0xfb, 0xbd, 0xbb, 0x0b, 0xec, 0xbd,
  0xee, 0xdc, 0xb1, 0x3d, 0x1f, 0xcc, 0x3f, 0xbe, 0xc9, 0x03, 0xeb, 0xbd,
  0xe6, 0x34, 0xbb, 0x3d, 0xa9, 0xc9, 0x10, 0x3d, 0x50, 0xf1, 0x87, 0x3d,
  0x6e, 0x23, 0xd0, 0xbe, 0x6a, 0x74, 0xfc, 0x3c, 0x46, 0x3a, 0x4a, 0xbd,
  0x3a, 0x65, 0x98, 0x3c, 0x7f, 0x03, 0x11, 0x3e, 0x75, 0xf5, 0x7f, 0x3b,
  0x99, 0x54, 0xb3, 0x3c, 0xf3, 0x46, 0xe8, 0xbd, 0xab, 0x25, 0x92, 0xbe,
  0x9a, 0xb7, 0x63, 0xbe, 0xcd, 0xa3, 0xfb, 0x3d, 0x8c, 0x65, 0xdd, 0xbd,
  0x2a, 0xc7, 0x7d, 0xbe, 0x9d, 0xae, 0xf2, 0x3d, 0x64, 0x51, 0x0a, 0xbe,
  0x08, 0x42, 0x42, 0xbe, 0x78, 0x4d, 0x95, 0xbe, 0x00, 0x38, 0x44, 0xbc,
  0x84, 0x9f, 0x10, 0xbe, 0x45, 0xce, 0xab, 0xbd, 0xf8, 0x2e, 0x1e, 0x3e,
  0xc4, 0xc8, 0xc2, 0xbd, 0x62, 0xfd, 0xff, 0xff, 0x10, 0x00, 0x00, 0x00,
  0x07, 0x00, 0x00, 0x00, 0x14, 0x00, 0x00, 0x00, 0x2c, 0x00, 0x00, 0x00,
  0x02, 0x00, 0x00, 0x00, 0x10, 0x00, 0x00, 0x00, 0x70, 0x00, 0x00, 0x00,
  0x17, 0x00, 0x00, 0x00, 0x73, 0x65, 0x71, 0x75, 0x65, 0x6e, 0x74, 0x69,
  0x61, 0x6c, 0x2f, 0x64, 0x65, 0x6e, 0x73, 0x65, 0x2f, 0x4d, 0x61, 0x74,
  0x4d, 0x75, 0x6c, 0x00, 0xcc, 0xfc, 0xff, 0xff, 0xd6, 0xfd, 0xff, 0xff,
  0x04, 0x00, 0x00, 0x00, 0x08, 0x00, 0x00, 0x00, 0xff, 0xff, 0xff, 0xff,
  0x70, 0x00, 0x00, 0x00, 0x00, 0x00, 0x0e, 0x00, 0x18, 0x00, 0x08, 0x00,
  0x07, 0x00, 0x0c, 0x00, 0x10, 0x00, 0x14, 0x00, 0x0e, 0x00, 0x00, 0x00,
  0x00, 0x00, 0x00, 0x02, 0x10, 0x00, 0x00, 0x00, 0x06, 0x00, 0x00, 0x00,
  0x10, 0x00, 0x00, 0x00, 0x2c, 0x00, 0x00, 0x00, 0x01, 0x00, 0x00, 0x00,
  0x02, 0x00, 0x00, 0x00, 0x18, 0x00, 0x00, 0x00, 0x73, 0x65, 0x71, 0x75,
  0x65, 0x6e, 0x74, 0x69, 0x61, 0x6c, 0x2f, 0x66, 0x6c, 0x61, 0x74, 0x74,
  0x65, 0x6e, 0x2f, 0x43, 0x6f, 0x6e, 0x73, 0x74, 0x00, 0x00, 0x00, 0x00,
  0x34, 0xfd, 0xff, 0xff, 0x3e, 0xfe, 0xff, 0xff, 0x04, 0x00, 0x00, 0x00,
  0x10, 0x00, 0x00, 0x00, 0x06, 0x40, 0x7e, 0xc0, 0xf9, 0x00, 0xea, 0xbf,
  0x09, 0xee, 0x8b, 0x3f, 0xde, 0x12, 0x66, 0x3f, 0x26, 0xfe, 0xff, 0xff,
  0x10, 0x00, 0x00, 0x00, 0x05, 0x00, 0x00, 0x00, 0x10, 0x00, 0x00, 0x00,
  0x44, 0x00, 0x00, 0x00, 0x01, 0x00, 0x00, 0x00, 0x04, 0x00, 0x00, 0x00,
  0x32, 0x00, 0x00, 0x00, 0x73, 0x65, 0x71, 0x75, 0x65, 0x6e, 0x74, 0x69,
  0x61, 0x6c, 0x2f, 0x64, 0x65, 0x6e, 0x73, 0x65, 0x5f, 0x31, 0x2f, 0x42,
  0x69, 0x61, 0x73, 0x41, 0x64, 0x64, 0x2f, 0x52, 0x65, 0x61, 0x64, 0x56,
  0x61, 0x72, 0x69, 0x61, 0x62, 0x6c, 0x65, 0x4f, 0x70, 0x2f, 0x72, 0x65,
  0x73, 0x6f, 0x75, 0x72, 0x63, 0x65, 0x00, 0x00, 0xa8, 0xfd, 0xff, 0xff,
  0xb2, 0xfe, 0xff, 0xff, 0x04, 0x00, 0x00, 0x00, 0x40, 0x00, 0x00, 0x00,
  0x82, 0xef, 0xe9, 0xbb, 0x38, 0xe3, 0x26, 0xbe, 0x3e, 0xea, 0x2e, 0xbe,
  0xc3, 0xd8, 0xa8, 0x3f, 0xed, 0x2e, 0x66, 0xbe, 0x9a, 0xf2, 0x1c, 0xbe,
  0xd0, 0x67, 0x91, 0xbe, 0xf5, 0x66, 0x8a, 0x3e, 0x7b, 0xad, 0xbd, 0xbe,
  0xd9, 0x38, 0xad, 0x3e, 0xdb, 0x18, 0x82, 0xbe, 0x92, 0x44, 0x85, 0xbf,
  0xe9, 0x6e, 0x27, 0x40, 0x05, 0x2e, 0x4b, 0xbe, 0x75, 0xdc, 0xb5, 0xbf,
  0xb6, 0xba, 0x9f, 0xbe, 0xca, 0xfe, 0xff, 0xff, 0x10, 0x00, 0x00, 0x00,
  0x04, 0x00, 0x00, 0x00, 0x10, 0x00, 0x00, 0x00, 0x44, 0x00, 0x00, 0x00,
  0x01, 0x00, 0x00, 0x00, 0x10, 0x00, 0x00, 0x00, 0x30, 0x00, 0x00, 0x00,
  0x73, 0x65, 0x71, 0x75, 0x65, 0x6e, 0x74, 0x69, 0x61, 0x6c, 0x2f, 0x64,
  0x65, 0x6e, 0x73, 0x65, 0x2f, 0x42, 0x69, 0x61, 0x73, 0x41, 0x64, 0x64,
  0x2f, 0x52, 0x65, 0x61, 0x64, 0x56, 0x61, 0x72, 0x69, 0x61, 0x62, 0x6c,
  0x65, 0x4f, 0x70, 0x2f, 0x72, 0x65, 0x73, 0x6f, 0x75, 0x72, 0x63, 0x65,
  0x00, 0x00, 0x00, 0x00, 0x4c, 0xfe, 0xff, 0xff, 0x56, 0xff, 0xff, 0xff,
  0x04, 0x00, 0x00, 0x00, 0x40, 0x00, 0x00, 0x00, 0x65, 0x72, 0x58, 0x40,
  0x60, 0x97, 0x2f, 0xbf, 0x45, 0xcd, 0x9b, 0x3e, 0x33, 0x0b, 0xb2, 0xbf,
  0xed, 0x40, 0x00, 0xbf, 0x0c, 0x2d, 0xc0, 0xbe, 0xe6, 0xaf, 0xbb, 0xbd,
  0x42, 0xd7, 0x8f, 0x40, 0x5b, 0x8b, 0x81, 0xbf, 0x7d, 0x02, 0x35, 0x40,
  0x4e, 0xcf, 0x49, 0x3f, 0x83, 0xaf, 0xbc, 0xbf, 0xcb, 0xdf, 0x09, 0xbf,
  0xae, 0xa2, 0xbb, 0xbf, 0xd4, 0x72, 0xc0, 0xbf, 0x47, 0x71, 0x68, 0xbf,
  0x6e, 0xff, 0xff, 0xff, 0x10, 0x00, 0x00, 0x00, 0x03, 0x00, 0x00, 0x00,
  0x10, 0x00, 0x00, 0x00, 0x48, 0x00, 0x00, 0x00, 0x01, 0x00, 0x00, 0x00,
  0x10, 0x00, 0x00, 0x00, 0x33, 0x00, 0x00, 0x00, 0x73, 0x65, 0x71, 0x75,
  0x65, 0x6e, 0x74, 0x69, 0x61, 0x6c, 0x2f, 0x63, 0x6f, 0x6e, 0x76, 0x32,
  0x64, 0x5f, 0x31, 0x2f, 0x42, 0x69, 0x61, 0x73, 0x41, 0x64, 0x64, 0x2f,
  0x52, 0x65, 0x61, 0x64, 0x56, 0x61, 0x72, 0x69, 0x61, 0x62, 0x6c, 0x65,
  0x4f, 0x70, 0x2f, 0x72, 0x65, 0x73, 0x6f, 0x75, 0x72, 0x63, 0x65, 0x00,
  0x04, 0x00, 0x06, 0x00, 0x04, 0x00, 0x00, 0x00, 0x00, 0x00, 0x06, 0x00,
  0x08, 0x00, 0x04, 0x00, 0x06, 0x00, 0x00, 0x00, 0x04, 0x00, 0x00, 0x00,
  0x20, 0x00, 0x00, 0x00, 0x2a, 0xd1, 0x1f, 0xbe, 0x99, 0xa4, 0xb7, 0xbf,
  0x1a, 0x08, 0xb7, 0xbf, 0x42, 0x3b, 0x80, 0xbe, 0x35, 0x79, 0xd8, 0xbf,
  0x46, 0xa6, 0x8f, 0xbf, 0x49, 0x50, 0x81, 0xbf, 0xe4, 0x5d, 0x2d, 0xc0,
  0x00, 0x00, 0x0e, 0x00, 0x14, 0x00, 0x04, 0x00, 0x00, 0x00, 0x08, 0x00,
  0x0c, 0x00, 0x10, 0x00, 0x0e, 0x00, 0x00, 0x00, 0x10, 0x00, 0x00, 0x00,
  0x02, 0x00, 0x00, 0x00, 0x10, 0x00, 0x00, 0x00, 0x44, 0x00, 0x00, 0x00,
  0x01, 0x00, 0x00, 0x00, 0x08, 0x00, 0x00, 0x00, 0x31, 0x00, 0x00, 0x00,
  0x73, 0x65, 0x71, 0x75, 0x65, 0x6e, 0x74, 0x69, 0x61, 0x6c, 0x2f, 0x63,
  0x6f, 0x6e, 0x76, 0x32, 0x64, 0x2f, 0x42, 0x69, 0x61, 0x73, 0x41, 0x64,
  0x64, 0x2f, 0x52, 0x65, 0x61, 0x64, 0x56, 0x61, 0x72, 0x69, 0x61, 0x62,
  0x6c, 0x65, 0x4f, 0x70, 0x2f, 0x72, 0x65, 0x73, 0x6f, 0x75, 0x72, 0x63,
  0x65, 0x00, 0x00, 0x00, 0x90, 0xff, 0xff, 0xff, 0x14, 0x00, 0x18, 0x00,
  0x04, 0x00, 0x00, 0x00, 0x08, 0x00, 0x0c, 0x00, 0x10, 0x00, 0x00, 0x00,
  0x00, 0x00, 0x14, 0x00, 0x14, 0x00, 0x00, 0x00, 0x14, 0x00, 0x00, 0x00,
  0x01, 0x00, 0x00, 0x00, 0x20, 0x00, 0x00, 0x00, 0x44, 0x00, 0x00, 0x00,
  0x2c, 0x00, 0x00, 0x00, 0x04, 0x00, 0x00, 0x00, 0x01, 0x00, 0x00, 0x00,
  0x40, 0x00, 0x00, 0x00, 0x03, 0x00, 0x00, 0x00, 0x01, 0x00, 0x00, 0x00,
  0x0c, 0x00, 0x00, 0x00, 0x63, 0x6f, 0x6e, 0x76, 0x32, 0x64, 0x5f, 0x69,
  0x6e, 0x70, 0x75, 0x74, 0x00, 0x00, 0x00, 0x00, 0x04, 0x00, 0x00, 0x00,
  0xff, 0xff, 0xff, 0xff, 0x40, 0x00, 0x00, 0x00, 0x03, 0x00, 0x00, 0x00,
  0x01, 0x00, 0x00, 0x00, 0xfc, 0xff, 0xff, 0xff, 0x04, 0x00, 0x04, 0x00,
  0x04, 0x00, 0x00, 0x00
};

unsigned int model_tflite_len = 13120;// Fill the int in `src/model.cc` here